<unk>	0
<s>	0
</s>	0
[MASK]	0
。	-2.50592
、	-2.54517
」	-3.4636
▁「	-3.53757
▁	-3.70211
......	-4.19998
?	-4.58746
の	-4.67344
た	-4.765
は	-4.79967
が	-4.94369
に	-5.07103
る	-5.09559
を	-5.12394
と	-5.24438
.	-5.41562
ボクは	-5.52237
も	-5.57912
で	-5.57955
い	-5.61627
から	-5.62908
よ	-5.63519
だ	-5.64536
レイ	-5.66085
うん	-5.68452
シオナ	-5.82407
ね	-5.82602
て	-5.89879
その	-5.99487
▁ボクは	-5.99814
な	-6.01415
――	-6.03412
ティピィ	-6.05171
!	-6.17647
く	-6.1765
でも	-6.17718
だった	-6.22864
した	-6.29549
か	-6.31756
ない	-6.34882
ていた	-6.3744
んだ	-6.37764
▁「......	-6.38322
▁そして	-6.4464
する	-6.46526
り	-6.53316
って	-6.53812
いた	-6.55872
った	-6.6074
それは	-6.662
だろう	-6.67016
だから	-6.67342
▁それは	-6.70067
す	-6.70883
そう	-6.71771
し	-6.73193
や	-6.73789
ボク	-6.77885
▁ティピィは	-6.79365
この	-6.80271
▁だけど	-6.81119
ティピィは	-6.81182
う	-6.82094
』	-6.82882
ように	-6.87552
き	-6.89241
▁その	-6.89379
だよ	-6.90845
かった	-6.91886
あ	-6.9232
ずっと	-6.92398
▁シオナは	-6.92783
シオナは	-6.93897
けれど	-6.96205
だけど	-6.9633
さ	-6.965
もの	-6.96904
こと	-6.97261
ると	-6.98853
......?	-6.98894
もう	-6.99895
......。	-7.01086
シオナが	-7.03839
して	-7.05652
▁でも	-7.05864
ていく	-7.05906
けど	-7.09566
み	-7.09982
『	-7.11793
ら	-7.12081
なの	-7.14637
ボクの	-7.14788
っ	-7.15506
大丈夫	-7.17651
マッドさん	-7.17869
なら	-7.21016
あの	-7.22343
そんな	-7.22467
お	-7.25718
ている	-7.26319
には	-7.27071
きっと	-7.27108
ながら	-7.27808
のか	-7.3074
人	-7.30835
ボクが	-7.31262
いや	-7.31444
ありがとう	-7.32843
ん	-7.32911
という	-7.33543
そ	-7.33674
ううん	-7.3388
ある	-7.34111
のは	-7.34209
また	-7.3527
目	-7.36267
それ	-7.37539
なかった	-7.37792
本	-7.38918
だって	-7.40971
だけ	-7.41436
ねぇ	-7.42232
手	-7.42698
そして	-7.44649
マッドさんは	-7.44827
少し	-7.45647
▁――	-7.4624
私	-7.46273
どうして	-7.47334
フィロイド	-7.48087
ティピィが	-7.49631
ええ	-7.50919
感情	-7.51138
こ	-7.51202
ティピィちゃん	-7.51351
それを	-7.54053
日	-7.54266
いる	-7.54752
していた	-7.56275
している	-7.56456
む	-7.56611
ああ	-7.57045
それが	-7.58389
▁シオナが	-7.5913
でしょ	-7.59606
っていた	-7.62099
んだろう	-7.65352
どこか	-7.665
図書館	-7.6693
なんだ	-7.67234
ー	-7.6729
てしまう	-7.67973
骨	-7.68229
ニンゲン	-7.68609
かもしれない	-7.69054
ティピィの	-7.70609
これ	-7.70709
声	-7.70894
にも	-7.72026
どうしたの	-7.73031
何か	-7.73415
いない	-7.74339
まだ	-7.7529
今	-7.7672
一	-7.77043
だろうか	-7.77608
かな	-7.77723
シオナの	-7.77831
あった	-7.78006
──	-7.78995
▁シオナ	-7.7922
だったら	-7.79447
るの	-7.79455
見	-7.8059
ば	-7.80772
なんて	-7.81313
すぐに	-7.81723
ぶ	-7.82443
ゆっくりと	-7.8282
じゃない	-7.83971
ま	-7.84315
ち	-7.84515
ただ	-7.84916
がある	-7.85379
っている	-7.85971
ず	-7.86584
歌	-7.87266
があった	-7.87322
のだろうか	-7.87523
まで	-7.87599
はない	-7.87733
くる	-7.87768
てくる	-7.88155
小さな	-7.88999
れ	-7.89153
え	-7.89217
いつも	-7.90277
後	-7.90313
胸	-7.90386
たい	-7.90619
のかもしれない	-7.90689
「	-7.92284
何	-7.92512
笑顔	-7.92591
違う	-7.92846
▁ボクが	-7.94186
せ	-7.94219
始めた	-7.94903
のだろう	-7.96785
ボクに	-7.9682
▁ティピィ	-7.97914
ボクたちは	-7.99123
もしかして	-7.99383
▁いや	-7.99527
▁ティピィが	-7.99544
ないよ	-7.99617
ことは	-7.99923
もちろん	-8.00116
すべて	-8.00392
喜び	-8.00609
れば	-8.00629
よう	-8.00735
そうだね	-8.0126
こう	-8.01309
数	-8.01419
頭	-8.0188
そうか	-8.02457
▁それでも	-8.02534
んだよ	-8.0289
▁だから	-8.03297
ティピィを	-8.03416
できない	-8.03966
これは	-8.06775
とても	-8.06951
ために	-8.07016
いい	-8.07295
気持ち	-8.07945
自分	-8.08199
一人	-8.08262
記憶	-8.08279
▁まるで	-8.08349
いく	-8.09427
映写機	-8.10268
一人で	-8.10509
みんな	-8.10764
本当に	-8.10815
ボクには	-8.11343
中	-8.11871
場所	-8.12143
だけで	-8.12202
▁ボクの	-8.127
です	-8.12918
シオナに	-8.13437
きた	-8.13515
マッドさんの	-8.13556
てしまった	-8.13723
ようだ	-8.13818
力	-8.14562
腕	-8.16282
物	-8.16387
分からない	-8.16848
先	-8.16874
外	-8.17019
ことで	-8.17576
愛	-8.17784
▁ボクたちは	-8.17914
マッドさんに	-8.18596
のに	-8.18993
ニンゲンの	-8.19454
町の	-8.19702
てくれた	-8.19766
わ	-8.2
そのまま	-8.20256
同じ	-8.20597
いて	-8.20864
になる	-8.21091
死	-8.21321
▁きっと	-8.21601
レイが	-8.22002
ボクたち	-8.22139
無	-8.22249
ことに	-8.22536
ここに	-8.22905
青年	-8.23015
▁けれど	-8.23098
▁そこには	-8.23884
られた	-8.23886
を持って	-8.23896
された	-8.24072
もっと	-8.24287
自分の	-8.24629
このまま	-8.24881
ような	-8.24887
こんな	-8.25335
絵	-8.25657
分かった	-8.25811
たんだ	-8.25814
どう	-8.25897
オルゴール	-8.25914
だと	-8.26159
▁──	-8.26418
▁ただ	-8.26505
口	-8.26921
していく	-8.27536
分	-8.2754
悲しみ	-8.27557
▁それが	-8.27571
のように	-8.28273
ではない	-8.28444
ため	-8.2958
用	-8.29725
廃工場	-8.29964
▁『	-8.30182
ことを	-8.30196
ル	-8.30783
全部	-8.30816
地図	-8.30818
ほら	-8.30875
▁あの	-8.31
るよ	-8.31094
と思う	-8.31758
小さく	-8.32086
め	-8.32258
だったんだ	-8.32293
なんだろう	-8.32853
はず	-8.33644
のない	-8.33653
なのか	-8.33815
それじゃ	-8.33866
からだ	-8.34141
ろ	-8.34141
を見る	-8.34168
顔	-8.34437
来	-8.34468
ここ	-8.3485
より	-8.34953
それで	-8.35728
どんな	-8.35858
▁ああ	-8.36206
手に	-8.3666
よく	-8.36788
さらに	-8.36802
優しく	-8.36884
水	-8.36954
レイは	-8.37016
メロディ	-8.37081
考え	-8.37191
間	-8.3734
大きな	-8.37399
ます	-8.37597
▁今	-8.37603
良い	-8.37628
マッドさんが	-8.37636
時間	-8.3784
色	-8.37955
見える	-8.38945
体	-8.38957
▁昨日	-8.38959
最	-8.38978
一番	-8.39072
大	-8.39609
出	-8.39693
なる	-8.39885
お願い	-8.39931
言った	-8.40035
今日は	-8.40066
わからない	-8.40244
大きく	-8.4025
てきた	-8.40266
動	-8.40303
時に	-8.40339
心	-8.40359
ちょっと	-8.40443
てくれる	-8.41055
そうだ	-8.41362
まま	-8.41529
事	-8.41669
▁もし	-8.41777
ニンゲンは	-8.42103
そうだよ	-8.42237
ボクを	-8.42252
える	-8.42422
!!	-8.42645
ものだ	-8.42712
ろう	-8.42768
と同じ	-8.43503
としても	-8.43755
オイル	-8.4417
それに	-8.4555
上	-8.45724
こうして	-8.45741
直	-8.45929
▁シオナの	-8.46206
がない	-8.47071
やっぱり	-8.47146
だね	-8.47403
少女	-8.47588
胸の奥	-8.47592
言う	-8.47652
命	-8.4777
ほど	-8.4844
わかった	-8.48786
バッテリー	-8.48864
形	-8.48954
感	-8.4908
になって	-8.49239
くれる	-8.49605
怒り	-8.49932
おまえ	-8.49983
入	-8.50028
ン	-8.50064
家族	-8.50092
として	-8.50408
青い少女	-8.50439
んだろうか	-8.50447
表情	-8.50487
温もり	-8.50493
時計	-8.50665
▁これが	-8.50952
▁それから	-8.51062
少しだけ	-8.51178
してくれる	-8.51412
部分	-8.51444
ティピィに	-8.51809
ボクはその	-8.51839
ないと	-8.52226
なのに	-8.52408
▁そんな	-8.52677
俺	-8.53798
行	-8.54421
とき	-8.55095
機器	-8.55157
この町	-8.55338
身	-8.56387
▁どうして	-8.56521
息子さん	-8.56561
▁そ	-8.5658
静かに	-8.56652
町	-8.56694
さえ	-8.56822
時	-8.56837
になった	-8.56861
教会	-8.56984
じゃあ	-8.57083
毎日	-8.57159
知っている	-8.58006
あれ	-8.5807
まるで	-8.5817
ここで	-8.58239
...	-8.58292
っていく	-8.58681
引き	-8.58955
私は	-8.58975
ということ	-8.59231
くて	-8.5927
それでも	-8.59779
理由	-8.59817
見た	-8.59868
かったんだ	-8.59871
者	-8.59953
び	-8.59991
不	-8.60035
気がした	-8.60163
チップ	-8.60398
▁この	-8.6048
方法	-8.60752
フ	-8.6082
いくら	-8.60878
面	-8.60951
充電	-8.61008
金属	-8.61018
よね	-8.61021
たぶん	-8.61037
前に	-8.61047
らしい	-8.61111
えっと	-8.61219
しか	-8.61305
そうだった	-8.61336
なんでもない	-8.61379
!?	-8.61576
はい	-8.61662
はなかった	-8.61845
年	-8.61865
きて	-8.62164
くらい	-8.62303
のようだ	-8.6249
感じた	-8.63029
見えた	-8.63061
ニンゲンが	-8.63158
つ	-8.63164
声で	-8.632
右手	-8.63217
ほ	-8.63615
の中	-8.6362
続ける	-8.63649
町に	-8.63879
ティピィも	-8.63888
どうしてだろう	-8.63908
思い	-8.64452
ってくる	-8.64543
来る	-8.64694
涙	-8.65752
みたい	-8.65824
昨日	-8.66031
行く	-8.66667
方	-8.66882
泣いている	-8.67005
の中で	-8.67364
思う	-8.67941
▁ボク	-8.68285
聞いて	-8.69301
指	-8.69309
あと	-8.69521
ること	-8.69574
んでいた	-8.69582
▁マッドさんは	-8.69838
させる	-8.70222
決して	-8.70604
のこと	-8.7076
音	-8.70927
ど	-8.71008
のかな	-8.71208
本棚	-8.71242
そんなこと	-8.71524
くなる	-8.71729
とっても	-8.72095
られる	-8.72319
へ	-8.72426
二人	-8.72664
もし	-8.72772
器	-8.72779
ひとり	-8.72995
同時に	-8.73012
問題	-8.73049
子ども	-8.73265
ぁ	-8.73354
ものを	-8.73405
つく	-8.73427
すごく	-8.73456
パートナー	-8.73475
んじゃ	-8.73483
小	-8.73512
ありがとうございます	-8.73517
A	-8.73517
ごめんなさい	-8.73519
優しさ	-8.73524
十分	-8.73533
まち	-8.7362
早く	-8.73662
いいんだよ	-8.73722
そんなことないよ	-8.73732
そう言って	-8.73788
色んな人	-8.74138
今は	-8.74176
強く	-8.74272
▁もう	-8.74278
分かってる	-8.74315
そうかな	-8.7438
んです	-8.7481
見えない	-8.74838
じゃないか	-8.74882
続けた	-8.75254
おかしい	-8.75356
それだけで	-8.76116
たまま	-8.7632
身体	-8.7642
家	-8.76589
わかる	-8.77668
はずだ	-8.77678
無理	-8.78065
映画	-8.7808
欲しい	-8.78225
存在	-8.7883
▁これは	-8.78958
だからね	-8.79076
▁いつも	-8.79167
私の	-8.79298
いいの	-8.79343
そこに	-8.79593
だけだ	-8.79866
回	-8.80107
確かに	-8.80265
もない	-8.80273
何度も	-8.80496
るかもしれない	-8.80512
である	-8.80518
子	-8.80594
機械	-8.80841
では	-8.81333
抱きしめ	-8.81411
があれば	-8.81477
たくさん	-8.81651
空	-8.81955
思い出す	-8.82213
ることができる	-8.82362
すぐ	-8.82384
しまう	-8.82637
話	-8.82696
パーツ	-8.82697
ところ	-8.83306
かい	-8.83395
希望	-8.83438
優しい	-8.83541
雨	-8.83597
人の	-8.83744
だが	-8.83915
直す	-8.8426
そうな	-8.84288
と思った	-8.84368
ス	-8.84533
再び	-8.84759
町の人たち	-8.84983
違い	-8.85066
変	-8.85196
れた	-8.85374
早	-8.85539
あんなに	-8.85673
待って	-8.85894
壁に	-8.85986
これから	-8.8605
やだ	-8.86284
ものだった	-8.86297
とすると	-8.86487
通り	-8.86709
ご	-8.86764
つか	-8.86822
すごい	-8.86959
視線を	-8.87097
ほんと	-8.87298
温かい	-8.87409
泣いて	-8.87464
店	-8.87534
不安	-8.87551
両親	-8.87591
ぎ	-8.87667
ナ	-8.87715
地	-8.8772
対	-8.87731
反	-8.87773
幸せ	-8.87801
そっと	-8.87802
越しに	-8.87803
を後にした	-8.87803
3	-8.87803
アリス	-8.87804
つまり	-8.87816
そっか	-8.87825
変わらない	-8.87838
つつ	-8.8785
少しずつ	-8.8785
白い	-8.87892
代わりに	-8.87984
くなっている	-8.88053
など	-8.88117
始める	-8.88208
言って	-8.88291
よりも	-8.88363
大丈夫だよ	-8.88407
目を	-8.88408
を見つけた	-8.88429
いつか	-8.88438
ぐ	-8.88459
撫でる	-8.88459
悲しい	-8.88625
捨て	-8.8882
てほしい	-8.89056
やった	-8.89075
立ち上がり	-8.89601
と思って	-8.89705
にある	-8.89874
的に	-8.90034
れない	-8.90171
てください	-8.90171
ここから	-8.903
怒	-8.90338
るように	-8.90571
▁確かに	-8.90612
口に	-8.90641
思っていた	-8.91312
をしていた	-8.91382
を見て	-8.91492
写真	-8.91507
ていて	-8.91584
使って	-8.9179
なんで	-8.91979
ことがあった	-8.91986
身体を	-8.92162
図書館に	-8.92209
▁自分	-8.92693
胸が	-8.92815
くなった	-8.92926
心が	-8.93231
なんか	-8.93336
くれ	-8.93341
ティピィと	-8.9339
ないように	-8.93644
悪	-8.94034
いても	-8.9417
確認	-8.94193
何も	-8.94244
関係	-8.94294
たのか	-8.94412
っと	-8.94565
たら	-8.94745
歩	-8.94892
のが	-8.94954
され	-8.95086
▁もしかして	-8.95242
道	-8.95661
頃	-8.95751
なに	-8.96477
会	-8.96697
になっている	-8.96839
中で	-8.97052
一緒に	-8.97441
ボクも	-8.97499
世界	-8.97537
広場	-8.97694
ことも	-8.97744
あまりに	-8.97869
腕を	-8.97912
ずっとずっと	-8.97923
ないの	-8.97974
私が	-8.98419
聞こえた	-8.98693
そこには	-8.98736
図書館の	-8.98736
残	-8.98878
笑って	-8.99091
あなた	-8.99348
扉	-8.99654
助け	-8.99734
ニンゲンに	-8.99835
▁ニンゲン	-8.99962
ゴミ	-9.00114
住	-9.00309
とは	-9.00505
をして	-9.00659
できる	-9.00747
部屋	-9.00872
かなり	-9.00892
息子	-9.009
町の人	-9.00963
オレンジ色の	-9.01204
嬉しい	-9.01252
されて	-9.01451
もしかしたら	-9.01549
▁町の	-9.0175
辺り	-9.01857
ることに	-9.02007
光	-9.02242
の姿	-9.02366
部品	-9.02369
止め	-9.02468
今まで	-9.025
に行こう	-9.02584
なんだよ	-9.02642
強	-9.02657
痛	-9.02723
の言葉	-9.02741
父親	-9.02781
なってしまう	-9.02868
▁どうやら	-9.02898
施設	-9.02923
下	-9.02974
状況	-9.03026
調べ	-9.03121
子供	-9.03405
お兄さん	-9.03417
町を	-9.03492
たのは	-9.03513
青い	-9.03547
わない	-9.03569
開	-9.03646
停止	-9.03677
りながら	-9.03678
すると	-9.0381
度	-9.03834
ことができない	-9.03836
生まれ	-9.03846
床に	-9.03896
違和感	-9.03903
行って	-9.03937
行動	-9.0394
しないで	-9.04133
スープ	-9.04138
ごめん	-9.0414
の間	-9.04357
傷	-9.0437
シ	-9.0438
甘	-9.04401
内	-9.0441
さっき	-9.04422
ア	-9.04422
ッ	-9.04431
昔	-9.04439
濡れ	-9.04445
製	-9.04459
雲	-9.04461
埃	-9.04468
選択	-9.0447
思考	-9.0447
嘘	-9.0447
元々	-9.04471
登録	-9.04471
新しい	-9.04474
知りたい	-9.04476
約束するよ	-9.04476
処分	-9.04477
こっち	-9.04485
私も	-9.0449
楽しかった	-9.04497
温かくて	-9.04499
そこから	-9.04514
はずなのに	-9.04516
現実	-9.04517
長く	-9.04518
涙が	-9.04607
気が	-9.04611
もう一度	-9.04618
続く	-9.04653
開いた	-9.04676
少しでも	-9.04677
▁そう思うと	-9.04737
当て	-9.04739
▁思わず	-9.04747
ではなく	-9.04909
ところで	-9.04971
探して	-9.05069
ということだ	-9.05091
私たちの	-9.05101
その人は	-9.05166
大丈夫だから	-9.05371
壊れた	-9.05457
パーツを	-9.05653
時間を	-9.05662
わせ	-9.05686
何かを	-9.05806
なのだろうか	-9.05825
すぎる	-9.05829
▁青年は	-9.05851
▁少女は	-9.05929
ティピィちゃんは	-9.06006
気	-9.06397
なった	-9.06415
流れる	-9.06463
▁やがて	-9.067
部屋に	-9.06832
目に	-9.06909
息を	-9.06932
立て	-9.07068
シオナと	-9.07341
に手を伸ばす	-9.07357
よかった	-9.0762
意味	-9.07722
そうね	-9.07733
ティピィちゃんに	-9.07893
▁ボクも	-9.08179
フィロイドは	-9.08288
みたいだ	-9.08464
ました	-9.08496
▁「――	-9.08599
ト	-9.08799
▁それ	-9.08868
でいた	-9.08878
ることなく	-9.09556
帰ろう	-9.09709
言葉	-9.09816
という感情	-9.0982
▁こ	-9.09959
言い	-9.09975
行くの	-9.09977
いよ	-9.10101
かけ	-9.10384
らない	-9.10559
なのだろう	-9.10688
いなかった	-9.11194
入れ	-9.11197
なんだか	-9.11265
押し	-9.11352
やめて	-9.11427
私たちは	-9.11522
一つ	-9.11679
行った	-9.12051
工場	-9.12215
食事	-9.12572
回り	-9.12972
のを感じた	-9.13374
手を	-9.13382
稼働	-9.13488
壊れ	-9.13716
構	-9.1384
怒って	-9.1385
ていった	-9.13883
合	-9.14197
ことだ	-9.14405
▁まだ	-9.14428
込む	-9.14682
準備	-9.14693
ることはない	-9.14899
るような	-9.15138
▁ボクはシオナ	-9.15154
ってしまう	-9.15704
を確認	-9.15921
かない	-9.15994
化	-9.16024
話し	-9.16139
音が	-9.16549
はずがな	-9.16599
んでいく	-9.16809
はどう	-9.16834
チップを	-9.17161
あり	-9.17206
言葉を	-9.17238
分かる	-9.17349
答え	-9.17378
事実	-9.1768
▁そこに	-9.17759
とも	-9.17882
やめ	-9.17906
はずの	-9.18174
銃	-9.18432
と思うよ	-9.18707
感情を	-9.18769
ティピィちゃんの	-9.19166
ボクのため	-9.19339
からは	-9.19478
▁町	-9.19754
あるよ	-9.19765
するよ	-9.19957
げた	-9.20304
安	-9.20306
動き	-9.2036
居	-9.20388
を受け	-9.20459
出した	-9.20636
散	-9.20703
進む	-9.20809
だけだった	-9.2084
悪い	-9.20861
遠く	-9.20999
られない	-9.21025
なるべく	-9.21227
カーテン	-9.21227
いつまでも	-9.21257
あいつ	-9.21427
触れ	-9.21537
突き	-9.21543
別	-9.21716
へと	-9.21756
頷い	-9.21811
覚えて	-9.21826
蓋	-9.21848
やがて	-9.21918
だけが	-9.21956
つける	-9.21998
誰か	-9.22002
空気	-9.22214
父親は	-9.22297
いたんだ	-9.22301
に合わせて	-9.22336
抜け	-9.22379
残っている	-9.2242
ぞ	-9.22435
血	-9.22518
えて	-9.22536
すぎ	-9.22818
胸の奥が	-9.22996
悲し	-9.23099
急	-9.23411
シオナがボク	-9.23453
建物	-9.23556
指先で	-9.23577
誰も	-9.23624
まず	-9.23662
旅	-9.23718
夢	-9.23728
願	-9.23769
見た目	-9.23789
降り	-9.23796
たくない	-9.23824
手書き	-9.23847
背	-9.23916
ましょう	-9.23972
場	-9.24073
近	-9.24085
▁こんな	-9.24112
寄	-9.24116
歌っていた	-9.24118
のような	-9.24134
二	-9.24146
赤く	-9.24178
続	-9.24179
食	-9.24272
それより	-9.24292
隣	-9.24318
少	-9.24322
十	-9.24348
機能	-9.24374
起こ	-9.24381
ことにし	-9.24389
利	-9.24395
一つだけ	-9.24397
どうやって	-9.24417
配	-9.24424
装置	-9.24454
ふたり	-9.24461
掛け	-9.24464
周	-9.24464
コ	-9.24464
椎	-9.24464
おい	-9.24466
があって	-9.24467
装	-9.24467
▁手袋	-9.24467
有	-9.24468
初めて	-9.24468
要	-9.24469
うまく	-9.24469
補	-9.24469
角	-9.24469
M	-9.24469
文	-9.24469
コールドスリープ	-9.24469
に向かう	-9.24469
特	-9.24469
危ない	-9.24469
危険	-9.24469
状態	-9.24469
逆	-9.24469
ほとんど	-9.2447
問い	-9.2447
決まって	-9.2447
0	-9.2447
e	-9.2447
しっかりしてください	-9.2447
電子回路	-9.2447
旋律	-9.2447
足を踏み入れ	-9.2447
天井	-9.2447
連絡	-9.2447
しゃ	-9.2447
技術	-9.2447
R	-9.2447
m	-9.2447
千	-9.24471
恐怖	-9.24471
サービスセンター	-9.24471
開始	-9.24472
当然	-9.24472
時折	-9.24472
右腕	-9.24473
わけだ	-9.24475
配線	-9.24476
両手で	-9.24476
どうにか	-9.24476
人影	-9.24479
人々	-9.24481
お願いします	-9.24483
やはり	-9.24485
▁だとしたら	-9.24486
最近	-9.24495
わけじゃない	-9.24495
一人きり	-9.245
微笑む	-9.24502
日々	-9.24507
んだね	-9.24508
途端	-9.24515
熱	-9.24518
無言で	-9.24521
いったい	-9.24522
ひとつ	-9.24522
戻ってくる	-9.24526
なんとか	-9.24548
ボクの心	-9.24556
抱え	-9.24566
何より	-9.24569
男たちが	-9.24574
何度も何度も	-9.24578
取り付け	-9.24585
止まっ	-9.24586
を終えた	-9.24588
ハンドルを回して	-9.24594
正しい	-9.246
的な	-9.24619
に戻った	-9.24661
それだけじゃない	-9.24683
こんなにも	-9.24711
おり	-9.24723
家に	-9.24726
ボクが勝手に	-9.24768
ごめんね	-9.24798
んー	-9.24825
手で	-9.24887
できなかった	-9.24916
願い	-9.24937
髪を	-9.24979
君は	-9.24986
続けていた	-9.24998
足下	-9.24999
見つからない	-9.25021
見せた	-9.25034
この図書館の	-9.25034
男は	-9.25072
もあった	-9.25082
涙を流した	-9.25099
進め	-9.25119
心から	-9.25119
引い	-9.25121
が入っている	-9.25135
ことはなかった	-9.25152
クマのぬいぐるみを	-9.2517
取り出した	-9.25174
ティピィを抱きしめ	-9.25189
たち	-9.25214
てみた	-9.25284
▁彼は	-9.254
▁いつしか	-9.25408
人たち	-9.2542
んで	-9.25435
▁ここ	-9.25511
涙を	-9.25515
深く	-9.25874
彼女の	-9.25977
ずに	-9.2599
用の	-9.26004
としたら	-9.26053
いいよ	-9.26232
と同じように	-9.26334
外に	-9.26391
胸に	-9.26394
ということは	-9.26437
町で	-9.26632
行こう	-9.26764
るのは	-9.26876
ボクを見上げ	-9.27053
その場に	-9.27057
指先	-9.2706
それら	-9.2713
シオナの手	-9.27135
▁町の人	-9.27356
これで	-9.27366
皆	-9.2748
食べ	-9.27596
てあげ	-9.27601
▁ボクはその	-9.27639
があるの	-9.27642
つかない	-9.27696
てみる	-9.27732
長い	-9.27769
らした	-9.27791
合い	-9.27796
▁今まで	-9.27973
歩き出	-9.28014
俺は	-9.28052
上に	-9.28312
みる	-9.2836
らせ	-9.28594
てくれて	-9.28722
青年は	-9.28756
外す	-9.29032
力が	-9.29218
向け	-9.29326
前	-9.29504
うことができない	-9.29628
することができ	-9.29835
悲しみを	-9.29862
うと	-9.30354
はやく	-9.30401
そうじゃない	-9.30565
けば	-9.30655
必要	-9.30823
そんなの	-9.30946
戻	-9.31054
ことはない	-9.31465
もので	-9.31687
感じる	-9.31693
足を	-9.31705
だっこ	-9.31733
なく	-9.31926
触	-9.32055
去って	-9.3219
せない	-9.327
今も	-9.32816
をする	-9.32956
息子さんの	-9.33089
どうか	-9.33118
何の	-9.33133
剥き出し	-9.33527
使	-9.3404
だな	-9.34167
笑顔で	-9.34338
ません	-9.34422
持つ	-9.3461
お父さんとお母さん	-9.34907
中には	-9.3513
ニンゲンだ	-9.35207
してくれた	-9.35245
の方が	-9.35254
肩	-9.3567
ることができ	-9.35677
と思っていた	-9.35719
▁何か	-9.35737
に対して	-9.35761
思えた	-9.3589
ないから	-9.35907
はじめ	-9.35941
に向かっ	-9.35981
温もりを	-9.36083
動く	-9.3629
青年を	-9.36461
られ	-9.36605
ていたんだ	-9.36682
▁すぐに	-9.36704
組み	-9.37097
ってこと	-9.37108
されている	-9.37251
上げて	-9.3752
のなら	-9.37539
のことだ	-9.37723
知らない	-9.37993
壊れる	-9.38198
にした	-9.38316
奥に	-9.38414
を見	-9.38631
▁ティピィを	-9.38704
座る	-9.38707
相手	-9.38979
は分からない	-9.39083
るようになった	-9.39863
を訪れ	-9.39989
右手を	-9.40107
ふわ	-9.40167
のだから	-9.40206
るだろう	-9.40258
思った	-9.40272
け	-9.40357
話しかけ	-9.40487
っちゃう	-9.40551
しく	-9.40588
作	-9.40649
気がする	-9.40719
んだけど	-9.40819
▁少し	-9.40897
さない	-9.40957
なんだろうか	-9.41134
なっていた	-9.41188
わっ	-9.41221
なければいけない	-9.41263
唇	-9.41529
所	-9.41748
端	-9.41772
言葉に	-9.41847
いで	-9.42043
しまった	-9.427
りと	-9.42701
部	-9.42706
以上	-9.42867
笑っている	-9.42873
変え	-9.42889
指先を	-9.42889
熱く	-9.43021
ハンドルを回す	-9.43194
どうしよう	-9.43281
レイに	-9.43285
たどり着いた	-9.43346
▁また	-9.43365
表情を	-9.43417
入って	-9.43473
を見つめていた	-9.43486
▁そう	-9.43511
まって	-9.43795
近くに	-9.439
になっていた	-9.44073
彼女は	-9.44142
不思議	-9.44142
一度	-9.44419
流れ	-9.4492
世界が	-9.44959
かけていた	-9.44989
広場に	-9.45012
そう言う	-9.45119
じゃないよ	-9.45141
奥	-9.45163
中の	-9.45173
服	-9.45222
くれない	-9.45251
人は	-9.45315
らないように	-9.45462
ふ	-9.45509
捕ま	-9.45531
場所が	-9.45591
昨日の	-9.45707
物が	-9.45982
考えて	-9.46024
目覚め	-9.46041
の方	-9.46085
たの	-9.46134
▁肩	-9.46205
持ち	-9.46226
不意に	-9.46246
良かった	-9.46256
窓	-9.46266
ようやく	-9.46272
どちら	-9.46298
歌う	-9.46298
増	-9.46332
生	-9.46341
だけは	-9.46344
エントランス	-9.46347
吐	-9.46359
バッグ	-9.464
孤独	-9.46419
自然と	-9.46491
なぜ	-9.46518
おそらく	-9.46552
それとも	-9.46676
見て	-9.46698
マッドさんの店	-9.46818
あまり	-9.46822
▁だけどその	-9.46857
表情は	-9.46864
いるんだ	-9.46962
ニンゲンたち	-9.4703
私たち	-9.47035
に向かって	-9.47136
胸の奥に	-9.47219
飛び	-9.47223
同じように	-9.4728
深	-9.47281
つけ	-9.47301
ボクの胸に	-9.47329
頬を	-9.47336
たちが	-9.47348
壁	-9.47352
それ以上	-9.47436
こそ	-9.47459
もいい	-9.47561
ばかり	-9.47574
頬に	-9.47593
望	-9.47619
シオナを	-9.4765
曲を	-9.47735
作業を	-9.47747
知	-9.47753
髪	-9.47753
聞こえ	-9.47787
分かって	-9.4779
んですか	-9.47796
れて	-9.47842
気持ちを	-9.47921
モデル	-9.4795
うれしい	-9.4796
痛い	-9.48002
返す	-9.4805
彼	-9.48063
頭を撫で	-9.48171
生活	-9.48214
断	-9.48301
ドロシー	-9.48422
名前	-9.4844
お兄ちゃん	-9.4846
どの	-9.48468
抱き寄せ	-9.48505
暗	-9.48582
彼女たち	-9.48585
もある	-9.48595
クマのぬいぐるみ	-9.48612
当	-9.48624
差し	-9.48627
喜んでくれ	-9.48652
▁しばらく	-9.48656
いつの間にか	-9.48686
鼻	-9.48708
棚の	-9.48709
破	-9.48715
爆弾	-9.48719
多く	-9.48724
しっかり	-9.48748
手の平	-9.48754
医学書	-9.48783
▁ボクたちが	-9.48791
大地	-9.48842
電気	-9.48942
するように	-9.48971
してしまった	-9.4898
弱	-9.4899
される	-9.49003
の隙間	-9.49009
感覚	-9.49046
上げ	-9.4906
ぼ	-9.49094
見つめている	-9.49102
あったかい	-9.49105
げに	-9.49107
映写機を	-9.49133
静寂	-9.49156
困	-9.49211
たびに	-9.49222
微笑み	-9.49226
ひと	-9.49231
子どもたち	-9.49257
驚	-9.49266
常に	-9.49308
渡	-9.49318
別れ	-9.4932
温かな	-9.49327
自	-9.49355
そういう	-9.49357
嫌	-9.4936
ボクは図書館	-9.49376
似	-9.49377
作り	-9.4939
座っていた	-9.49392
立ち	-9.49396
実は	-9.49408
合わせ	-9.49408
遠い	-9.49416
運	-9.49419
消	-9.49421
リ	-9.49428
横	-9.49429
魂	-9.49431
一瞬	-9.49435
再	-9.49441
主	-9.49444
平	-9.49447
風が	-9.49447
山	-9.49447
父	-9.49453
歯	-9.49462
大きさ	-9.49463
顎	-9.49464
チ	-9.49465
弾	-9.49465
新	-9.49465
混	-9.49466
下さい	-9.49466
味	-9.49466
万	-9.49467
37	-9.49468
六	-9.49468
O	-9.49468
既に	-9.49468
役	-9.49469
D	-9.49469
そこまで	-9.49469
四	-9.49469
秒	-9.49469
エネルギー	-9.49469
スクリーン	-9.49469
ポ	-9.49469
抱き締め	-9.49469
鉄	-9.49469
翌	-9.49469
転がっている	-9.49469
騒	-9.49469
o	-9.49469
些細な	-9.49469
歌を唄い	-9.49469
で覆	-9.49469
一杯	-9.49469
投げ	-9.49469
持った	-9.49469
過去	-9.49469
首を横に振っ	-9.49469
女性	-9.4947
恥ずかし	-9.4947
覚悟	-9.4947
d	-9.4947
型	-9.4947
夜	-9.4947
得	-9.4947
手をつなぐ	-9.4947
拳銃を	-9.4947
石	-9.4947
箇所	-9.4947
転がっていた	-9.4947
退	-9.4947
鍵をかけ	-9.4947
出迎えてくれ	-9.4947
捜し物	-9.4947
棺桶	-9.4947
こちら	-9.4947
扱	-9.4947
激	-9.4947
状	-9.4947
論	-9.4947
温度	-9.4947
盤	-9.4947
経口ブロックを	-9.4947
行為	-9.4947
母親	-9.4947
肌	-9.4947
頷く	-9.4947
丁寧に	-9.4947
ちょうど	-9.49471
節	-9.49471
そろそろ	-9.49471
食料	-9.49471
いかないで	-9.49472
早速	-9.49472
らせる	-9.49472
ラインで	-9.49472
動揺	-9.49472
20	-9.49473
どれくらいの	-9.49473
弱々しく	-9.49474
結果	-9.49474
広がっていく	-9.49475
絶望	-9.49476
仕方がない	-9.49477
全身	-9.4948
過ごしてきた	-9.4948
シオナのお兄さんのオルゴール	-9.4948
してしまうこと	-9.49483
死んでしまう	-9.49483
青く	-9.49485
レンズ	-9.49487
困ったこと	-9.49487
ボクが目覚めた	-9.49488
帰ってくる	-9.49488
終わった	-9.49496
二人とも	-9.495
ごちそう	-9.49501
ぽか	-9.49502
こうやって	-9.49502
打ち	-9.49502
上げた	-9.49503
とってもとっても	-9.49509
すでに	-9.49511
ふふっ	-9.49511
できている	-9.49512
明日	-9.49513
絵を描く	-9.49513
曲が	-9.49533
とても悲しい	-9.49535
歌い始め	-9.49536
▁いつものように	-9.49536
黒い板	-9.49548
そうじゃなくて	-9.49567
いつも以上に	-9.49569
それでいて	-9.49573
ページを	-9.49578
できるだけ	-9.49581
を起こし	-9.49581
忘れていた	-9.49582
考えれば	-9.49586
視線が	-9.49597
▁辺りに	-9.49598
もう二度と	-9.49598
機械の腕	-9.49622
男たちは	-9.49626
あはは	-9.49632
正常	-9.49633
切れ	-9.49635
痛み	-9.49644
を告げ	-9.49651
響く	-9.49657
なるほど	-9.49661
座り込	-9.49662
もうすぐ	-9.4967
最後の	-9.49679
スクラップの	-9.49703
申し訳ない	-9.49746
やぁ	-9.49757
その手は	-9.49758
はじめて	-9.49789
もっともっと	-9.49829
ますように	-9.4985
深い	-9.49886
▁そういえば	-9.49922
▁愛があるから	-9.49926
無い	-9.49946
感情が	-9.49958
▁慌てて	-9.49961
絶対に	-9.49963
手をつない	-9.49964
かけて	-9.49988
があります	-9.50016
人たちを	-9.50029
われ	-9.50042
すために	-9.50044
であり	-9.5005
やってきた	-9.50074
▁その言葉は	-9.50122
ないと思う	-9.50165
追い	-9.50166
それなら	-9.50191
てみると	-9.50194
悲しいよ	-9.50218
そんなことはない	-9.50271
への	-9.50276
疲	-9.50278
に違	-9.50312
行くよ	-9.50333
私たちが	-9.50351
違和感を覚え	-9.50363
ようだった	-9.50379
誰かに	-9.50399
ちゃうよ	-9.50418
会いた	-9.50419
お兄ちゃんの	-9.50488
誰もが	-9.50492
血が	-9.505
震える	-9.50511
を持っていた	-9.50527
ちか	-9.5056
応え	-9.50677
くなり	-9.50679
ことだよ	-9.50684
▁シオナに	-9.50693
ったんだ	-9.507
大好きな	-9.50744
だったかな	-9.50752
今日	-9.50807
風に	-9.50846
点滅	-9.50869
間に	-9.5087
少女を	-9.50909
この町の	-9.50966
少女の絵	-9.50973
ボクの腕	-9.50976
これが	-9.51008
これなら	-9.51013
▁その時	-9.51014
あなたの	-9.51062
光が	-9.51068
感情なんだ	-9.5107
みたいに	-9.51078
上が	-9.51116
力で	-9.51164
うちに	-9.51219
自分で	-9.51224
、『	-9.51306
に取り	-9.51382
なって	-9.51461
温もりが	-9.51461
▁そんなに	-9.5149
▁突然	-9.51508
▁本当は	-9.51509
しばらくして	-9.51559
涙を流していた	-9.51573
であろう	-9.51647
カ	-9.51685
謝り	-9.51697
いつから	-9.51749
進んでい	-9.51814
必ず	-9.51912
仕方ない	-9.51914
▁ここは	-9.51935
▁青年の	-9.52041
しっかりと	-9.52161
があるから	-9.52161
戻って	-9.52227
▁シオナから	-9.52315
の元へ	-9.5232
います	-9.52355
ボクら	-9.52411
るのよ	-9.52512
オルゴールは	-9.5257
なんだから	-9.52571
ねぇレイ	-9.52637
町の人たちが	-9.52642
手を伸ばし	-9.52689
を引く	-9.52699
気づいた	-9.52796
出る	-9.52856
そのチップ	-9.52908
もっとも	-9.52976
痛く	-9.53065
▁直	-9.53129
▁このまま	-9.53132
ができた	-9.53157
れるように	-9.53406
震え	-9.53423
みながら	-9.53483
ティピィはそう	-9.53517
なし	-9.53589
んだから	-9.53596
笑わ	-9.53603
マッドさんも	-9.53704
を笑顔にしよう	-9.53744
までの	-9.53961
いると	-9.54003
あなたは	-9.54037
言うと	-9.54052
遅くな	-9.54219
んじゃない	-9.5434
▁不安	-9.54354
涙は	-9.5436
かき	-9.54484
知識	-9.54646
自分が	-9.54647
誰かと	-9.54702
受け	-9.54739
▁再び	-9.54756
誰が	-9.54917
ティピィちゃんが	-9.55018
ム	-9.55144
たくて	-9.55186
戻し	-9.55353
のかい	-9.55446
瞬間	-9.5548
でもない	-9.55503
落ち着	-9.55517
が並んでい	-9.55588
▁決して	-9.55662
生き	-9.55671
中を	-9.55757
▁本棚	-9.55829
抜けていく	-9.55884
その音	-9.55943
シオナとティピィ	-9.56018
熱い	-9.56048
その後	-9.56322
...。	-9.56363
を取り戻	-9.56423
ものが	-9.5673
ときに	-9.56819
にたどり着いた	-9.5682
一枚	-9.56922
なん	-9.56926
リビング	-9.5706
いって	-9.57248
かと	-9.57284
▁やっぱり	-9.57319
▁なのに	-9.57342
外から	-9.57349
せて	-9.57551
の中に	-9.57667
存在だった	-9.57679
を感じた	-9.57684
いね	-9.57719
その気持ち	-9.57775
ここにいる	-9.57826
いるの	-9.57929
パーツが	-9.58006
答える	-9.58021
見つめて	-9.58084
っても	-9.58432
握りしめ	-9.5845
怪我	-9.58568
からね	-9.58622
すと	-9.59031
──......	-9.5929
▁マッドさんが	-9.5937
を傷つけ	-9.59529
める	-9.59553
▁ティピィに	-9.59572
いていた	-9.59921
感じてしまう	-9.60077
るから	-9.60547
――!	-9.60651
ことができている	-9.60682
背中	-9.60972
ほん	-9.61111
ボクたちニンゲン	-9.61183
って欲しい	-9.61361
てあげたかった	-9.61533
消え	-9.6168
▁ボクには	-9.61788
方を	-9.61927
シオナの歌声	-9.62039
てくれ	-9.62117
▁ティピィの	-9.62217
ても	-9.62226
背中を	-9.62384
ことができる	-9.62694
修理を	-9.62781
そのために	-9.62999
を見つけることができ	-9.63139
隠して	-9.63169
ると思う	-9.63169
ったら	-9.63295
頭を	-9.63296
心の中	-9.63559
裏	-9.63565
何枚	-9.63583
言葉が	-9.63618
があるんだ	-9.63876
......!	-9.63979
にいた	-9.64129
オイルを	-9.64406
くと	-9.64659
見たもの	-9.64855
となる	-9.6494
▁なんて	-9.64944
気を	-9.64956
駆け	-9.6525
▁手	-9.65254
の感情	-9.65289
▁本	-9.65428
がいて	-9.65547
えない	-9.65746
無く	-9.66111
驚いた	-9.66297
オイルが	-9.66448
じっと	-9.66523
かと思	-9.66646
の顔は	-9.66675
過ごす	-9.6668
途中で	-9.66814
の温もり	-9.6684
勝手に	-9.6692
少女は	-9.6693
しろ	-9.66986
目を開け	-9.67085
いだ	-9.67136
のことも	-9.67195
息が	-9.67251
を感じる	-9.67277
▁マッドさんの	-9.67281
▁小さな	-9.67305
しまったら	-9.67476
々	-9.67561
前から	-9.67716
あげたかった	-9.68086
いの	-9.68116
同じく	-9.68135
をボクに	-9.68328
することも	-9.68502
っているの	-9.68692
これって	-9.68776
られて	-9.68858
生まれた	-9.68892
を押し	-9.68969
肩を	-9.69049
されてしまった	-9.69148
つもり	-9.69378
をやり	-9.69426
いま	-9.69588
はしない	-9.69672
先に	-9.69734
強い	-9.69876
を隠す	-9.70119
そうなっ	-9.7012
してるよ	-9.70251
出来	-9.70384
を見つめ	-9.70433
▁息子	-9.70638
軽く	-9.70723
やって	-9.70834
たちは	-9.70897
手を握り	-9.7119
直して	-9.71402
い物	-9.71418
近づく	-9.71466
あんな	-9.71501
載っていた	-9.71517
の上に	-9.71595
量	-9.71684
てしまっている	-9.71743
覚え	-9.72063
けた	-9.72244
の想い	-9.72279
に気づいた	-9.72621
置いて	-9.72814
訊ね	-9.72901
の中には	-9.73476
メンテナンス	-9.73503
▁マッドさん	-9.73515
泣いた	-9.73723
出され	-9.73812
▁誰か	-9.73891
世界を	-9.73928
微	-9.74345
らなかった	-9.74429
三人で	-9.74487
あって	-9.74785
まん	-9.75056
▁あ	-9.7511
頭部	-9.75128
なか	-9.752
二百年	-9.75218
本を	-9.75332
▁誰	-9.75339
の写真	-9.75443
心配	-9.75564
らぐ	-9.75694
修理	-9.75798
笑	-9.75865
握り締め	-9.76093
▁そんなボク	-9.76288
解	-9.76381
刻	-9.76407
すべてを	-9.76703
雨の	-9.76805
手を伸ばす	-9.76822
めて	-9.76933
ぬ	-9.76945
ください	-9.76955
の本	-9.77033
のまま	-9.77056
歩き	-9.77057
いつ	-9.77147
もん	-9.77217
うち	-9.77371
▁だけどそれは	-9.77394
約束	-9.77485
柔らか	-9.77612
るという	-9.77616
彼女が	-9.77712
やく	-9.77809
▁それだけ	-9.77825
らっ	-9.77914
お腹	-9.77918
伸ばし	-9.781
取り	-9.78118
本が	-9.78144
息	-9.78153
頭に	-9.78166
多くの	-9.78207
感じ	-9.78323
そうに	-9.78365
進	-9.78382
頬	-9.78475
を求めて	-9.78607
どこに	-9.78617
を見上げる	-9.78733
微笑みを	-9.78927
▁なら	-9.78942
語	-9.78958
心を	-9.78964
えっ	-9.79013
映	-9.79214
の記憶	-9.79243
歯車	-9.79393
続いて	-9.79489
荒	-9.79575
るのだろうか	-9.7959
朝	-9.79593
五	-9.79595
様々な	-9.79597
しい	-9.79658
悲鳴	-9.79663
二つ	-9.79673
美しい	-9.79764
甘い香りが	-9.79772
少年	-9.79781
視界	-9.79798
伸ばした	-9.798
君	-9.79827
男	-9.79827
次	-9.79855
向かって	-9.79869
シオナの笑顔	-9.79892
赤い	-9.79894
どういうこと	-9.79988
突然	-9.80038
運び	-9.8012
耳を	-9.80127
動かして	-9.8016
赤	-9.80197
始め	-9.80207
▁彼女	-9.80349
あの時	-9.8036
読	-9.80375
応	-9.80545
帰	-9.80554
中身	-9.80577
本当は	-9.80696
も知	-9.80698
くように	-9.80734
じゃ	-9.80745
嬉しいよ	-9.8077
悲しそうな	-9.80776
良い子	-9.80813
ちゃいけない	-9.80841
来た	-9.80846
少女の	-9.80908
だろ	-9.80926
立	-9.80931
にボクは	-9.80938
女の子	-9.8097
シオナは少し	-9.80983
▁なにか	-9.80984
色んな	-9.80988
を覚えた	-9.81029
行き	-9.81064
物語	-9.81083
ことを考えて	-9.81092
まずは	-9.81135
終	-9.81139
抱	-9.81164
寄せ	-9.81175
辛い	-9.81294
写真屋	-9.81352
館長さん	-9.81353
両	-9.81389
的	-9.81438
疲れ	-9.81452
開く	-9.81525
気づ	-9.81558
定	-9.81571
親	-9.8163
調子	-9.81648
始ま	-9.81649
立っている	-9.81653
再生	-9.8166
気になる	-9.81678
照	-9.81692
冷	-9.81692
が増え	-9.81703
永遠	-9.81751
人生	-9.81752
無事	-9.81758
はいられない	-9.81758
眠り	-9.81768
それぞれ	-9.81775
側に	-9.81778
紙	-9.81786
ほどの	-9.81816
可能性	-9.81901
先ほど	-9.81938
板	-9.81943
の上で	-9.81948
しょ	-9.81953
満足	-9.81955
途中	-9.81987
ゆ	-9.82005
伝え	-9.82012
滴	-9.82017
片	-9.82021
意識	-9.82049
熱くなる	-9.82058
音楽	-9.82061
お茶	-9.82072
て欲しい	-9.82073
悲しんで	-9.82075
側	-9.82094
あります	-9.82135
絶対	-9.82137
隠し	-9.82202
機械部品	-9.82205
高い	-9.82239
薄	-9.82241
良	-9.82275
持っていた	-9.82315
借り	-9.8232
なければ	-9.82325
の中から	-9.82327
付	-9.82336
貰った	-9.8234
▁そう思う	-9.82356
故障	-9.82367
理不尽	-9.82385
データ	-9.82389
お葬式	-9.824
ごと	-9.82426
聞き	-9.82466
果	-9.82471
電	-9.82481
とは違う	-9.82513
回した	-9.82521
入った	-9.82525
許し	-9.82532
▁店の	-9.82541
言うこと	-9.82551
振り返る	-9.82555
準備を	-9.82565
きます	-9.82576
そんなことない	-9.82625
この歌	-9.82645
支え	-9.82656
メ	-9.82664
つぶ	-9.82667
パ	-9.82685
突	-9.82686
設備	-9.82689
良くない	-9.82694
真	-9.82696
買い物	-9.82698
えていた	-9.827
ディスク	-9.82701
モ	-9.82713
伝って	-9.82715
造	-9.82716
相	-9.82718
連	-9.82728
仕	-9.8273
根	-9.82732
堪え	-9.82736
割	-9.82737
明	-9.82737
少女の姿	-9.82746
失った	-9.82748
示	-9.82755
収	-9.82756
打	-9.82759
様	-9.82759
見つめる	-9.82764
伸ばす	-9.82766
待つ	-9.82771
絶	-9.82771
にさせ	-9.82776
笑う	-9.82779
完全	-9.82779
泣き	-9.8278
涙を流している	-9.82782
管理	-9.82782
イ	-9.82782
監督	-9.82784
レ	-9.82786
式	-9.82787
末	-9.82788
図	-9.82789
づけ	-9.8279
ほどに	-9.8279
顔が	-9.8279
線	-9.8279
名	-9.82791
異	-9.82792
結	-9.82792
廃	-9.82793
品	-9.82793
雑貨屋	-9.82794
車	-9.82795
ック	-9.82795
表	-9.82797
低い	-9.82798
ロ	-9.82798
検索	-9.82798
介	-9.82798
描く	-9.82799
h	-9.82799
17	-9.82799
底	-9.828
の罪	-9.82801
聖	-9.82801
キ	-9.82801
唯一	-9.82801
n	-9.82801
かのような	-9.82801
演奏	-9.82801
教えて	-9.82801
ちゃって	-9.82801
案	-9.82801
七	-9.82802
巻	-9.82802
泣かないで	-9.82802
と共に	-9.82802
どこまでも	-9.82802
カウンター	-9.82802
固まっ	-9.82802
に教わった	-9.82802
サ	-9.82802
タイプ	-9.82802
吹	-9.82802
愁い	-9.82802
戦	-9.82802
排除	-9.82802
濁	-9.82802
苦しくて	-9.82802
荷物	-9.82802
じっくりと	-9.82803
とクレヨン	-9.82803
共通	-9.82803
寝顔	-9.82803
適	-9.82803
鍵が	-9.82803
駄目だ	-9.82803
お礼を言	-9.82803
だいじょうぶ	-9.82803
の中央に	-9.82803
ふざけるな	-9.82803
ドラム缶	-9.82803
不格好な	-9.82803
保証	-9.82803
固め	-9.82803
抗	-9.82803
被害	-9.82803
迷うことなく	-9.82803
金	-9.82803
風邪	-9.82803
馴染	-9.82803
沈黙	-9.82803
いい加減に	-9.82803
とフィロイドが共存できる世界	-9.82803
を飲み込	-9.82803
偉い	-9.82803
素敵な	-9.82803
踏み	-9.82803
a	-9.82803
おかえり	-9.82803
こみ上げてくる	-9.82803
ぜったい	-9.82803
とりあえず	-9.82803
に伸び	-9.82803
に歩み寄	-9.82803
カプセル	-9.82803
キッチン	-9.82803
タオル	-9.82803
マッドさんに喜んでもらえ	-9.82803
尻	-9.82803
幼い	-9.82803
抑え	-9.82803
毛	-9.82803
町並み	-9.82803
画用紙	-9.82803
瞼	-9.82803
社	-9.82803
綺麗な	-9.82803
老	-9.82803
記念日	-9.82803
迷惑	-9.82803
途切れた	-9.82803
ロビー	-9.82803
を手に入れ	-9.82803
ベッド	-9.82803
情報	-9.82803
込んでみる	-9.82803
響き渡る	-9.82803
-1	-9.82803
お兄ちゃんが作った	-9.82803
お父さんもお母さんも	-9.82803
しかめっ面	-9.82803
とっとと帰	-9.82803
どんどん	-9.82803
の前で手を組	-9.82803
外側から	-9.82803
描きかけの絵	-9.82803
放ってお	-9.82803
注意	-9.82803
結びつける	-9.82803
舌	-9.82803
飲み物	-9.82803
黙って	-9.82803
k	-9.82803
拍	-9.82803
無邪気な	-9.82803
生き延び	-9.82803
115』	-9.82804
▁その言葉を聞いて	-9.82804
ハン	-9.82804
久し	-9.82804
体温	-9.82804
振り下ろ	-9.82804
整理を	-9.82804
日常	-9.82804
自由	-9.82804
▁最初は	-9.82804
存在だ	-9.82804
手袋をはめ	-9.82804
殆ど	-9.82804
パパとママ	-9.82804
効率	-9.82804
意地悪	-9.82804
慎重に	-9.82804
プロ	-9.82804
義	-9.82804
貴様	-9.82804
かすかに	-9.82804
ミューム社製の映写機	-9.82804
メーカー	-9.82804
同じ事を	-9.82804
整備	-9.82804
木	-9.82804
生産	-9.82804
精密な	-9.82804
安全	-9.82804
拭	-9.82804
だらけ	-9.82804
タブレット	-9.82804
楕円形の	-9.82804
繰り返して	-9.82804
すこし	-9.82805
動いてる	-9.82805
改めて	-9.82805
《	-9.82805
》	-9.82805
素直になれ	-9.82805
すぅー	-9.82805
予測	-9.82805
病気	-9.82805
金属製の鞄	-9.82805
具合	-9.82805
再試行します	-9.82805
明るく	-9.82806
限りなく近	-9.82806
た方がいい	-9.82806
個体名	-9.82806
歯車が	-9.82806
叶わない	-9.82807
オレンジ色のポワポワ	-9.82807
-17	-9.82807
まさに	-9.82807
バレ	-9.82807
残念だ	-9.82807
もいかない	-9.82808
真っ先に	-9.82809
終わらせ	-9.82809
の身体が心配	-9.8281
ずつ	-9.8281
知っていても	-9.8281
るといいね	-9.8281
わないといけない	-9.8281
口元を	-9.82811
がんば	-9.82811
反芻する	-9.82812
で起こっている	-9.82813
程度	-9.82814
なくても	-9.82814
構造	-9.82816
一冊	-9.82817
旅に出	-9.82817
実感	-9.82818
屋上	-9.82819
▁ボクはその少女の	-9.82819
が気になった	-9.82821
の男が	-9.82821
ックス	-9.82822
暗雲	-9.82822
読み	-9.82822
抱きついて	-9.82822
管理者	-9.82823
スクラップの山	-9.82823
ありません	-9.82824
に喜んでもらいたい	-9.82825
胸の奥が温かいんだ	-9.82825
▁しばらくすると	-9.82826
今のところ	-9.82826
必要がある	-9.82827
置かれてい	-9.82827
行われ	-9.82828
ード	-9.82828
気配	-9.82828
みんなで作った	-9.82831
やがれ	-9.82832
どのくらい	-9.82833
部屋に入って	-9.82835
そう呟	-9.82835
を必要とする	-9.82835
分からなかった	-9.82835
電力	-9.82837
言葉の意味	-9.82838
教会に向かっ	-9.82839
届いた	-9.82842
抜き	-9.82842
たりする	-9.82844
を頼りに	-9.82848
収ま	-9.82849
につれ	-9.82849
手渡し	-9.82851
を与え	-9.82852
作られた	-9.82853
に包まれている	-9.82855
やめろ	-9.82856
▁濡れた	-9.82856
大丈夫ですか	-9.82858
▁ボクの言葉に	-9.82859
ただいま	-9.8286
合える	-9.82863
立っていた	-9.82864
頼み	-9.82865
大変	-9.82865
だって愛は	-9.82865
外へと	-9.82866
穏やかな	-9.82867
過酷な	-9.82868
じて	-9.8287
▁何かあったの	-9.82872
根本	-9.82874
▁ボクは思わず	-9.82874
を込めて	-9.82874
むしろ	-9.82874
雨水	-9.82876
図書館へ	-9.82878
やめよう	-9.82879
前まで	-9.8288
漂う	-9.82881
手伝う	-9.82881
しまい	-9.82883
過ぎる	-9.82887
この人を助け	-9.82891
ぎゅっとして	-9.82891
に対する	-9.82891
黒い	-9.82893
限り	-9.82897
わけではない	-9.82898
んでくる	-9.82898
引っかか	-9.82901
ボクの胸の中で	-9.82904
必ずある	-9.82907
を探す	-9.82908
ことすら	-9.82908
生み	-9.82911
せるように	-9.82911
胸の中が	-9.82912
そうしないと	-9.82915
首を	-9.82917
オルゴールのハンドルを回し	-9.82918
流れている	-9.82929
を突き進	-9.82933
かかってい	-9.82941
望み	-9.82941
▁そう考えると	-9.82944
難しい	-9.82945
図書館に行っ	-9.82945
ばかりだ	-9.82947
オルゴールを持って	-9.82951
話してくれた	-9.82953
カメラを	-9.82957
大好きだった	-9.82957
が続いてい	-9.8296
無力	-9.82966
背中から	-9.82968
まし	-9.82971
機械の右手	-9.82979
ここまで	-9.82991
に近づいて	-9.82997
に行ってくるよ	-9.83008
音を立てて	-9.8301
あなたのこと	-9.83012
お店	-9.83016
い表情で	-9.83017
よくないこと	-9.83018
もう帰ろう	-9.83023
壊れてしまう	-9.83024
つら	-9.83026
作った	-9.83031
そうとしている	-9.83035
あの子	-9.83037
付ける	-9.83037
のぬいぐるみ	-9.83041
の距離	-9.83041
ちゃった	-9.83045
店内に	-9.83051
寄り添い	-9.8306
助けてあげ	-9.83064
真っ赤で	-9.83072
り出して	-9.83073
夢を見	-9.83074
拳を	-9.83084
▁シオナの手がボクの	-9.83091
ボク自身が	-9.83091
の小さな身体	-9.831
のようなもの	-9.83123
が伝わってくる	-9.83126
広げ	-9.83129
いままで	-9.8313
何かあった	-9.8313
ゴミの	-9.83136
▁今にも	-9.83138
見せる	-9.83144
ことはできない	-9.83157
を使う	-9.83164
あれは	-9.83167
すり寄	-9.83176
もかか	-9.83187
人物	-9.83217
痛みを感じ	-9.83219
を取り出す	-9.8322
包み込むように	-9.83221
あの歌を	-9.83222
悲しそうな表情	-9.83231
世界中	-9.83231
ことです	-9.83238
を決め	-9.83243
手のひらを	-9.83247
柔らかい	-9.8325
どうすればいい	-9.83255
ぐらい	-9.83263
じゃなくて	-9.83266
直してあげたい	-9.83277
彼ら	-9.83303
全てが	-9.83306
ため息を	-9.83308
がオ	-9.83308
暖かい	-9.83314
そっとしてお	-9.83317
館長に	-9.83318
ものなのか	-9.83332
やってくる	-9.83337
言っていた	-9.83344
口を	-9.83364
▁ふと	-9.83365
ボクの喜び	-9.83378
が集まって	-9.83391
うれしいよ	-9.83392
歩く	-9.83397
します	-9.83398
やり	-9.83403
お互いの	-9.83454
直った	-9.83456
涙を流さ	-9.83456
さみしい	-9.83457
▁しかし	-9.83458
▁とにかく	-9.8346
▁信じ	-9.83462
この曲を	-9.83464
死んでしまった	-9.83467
▁広	-9.83468
いません	-9.83474
▁扉を開け	-9.83488
変わった	-9.83497
哀しそうに	-9.83511
良くないこと	-9.83513
の本を	-9.83526
くりと	-9.83541
喜んでくれる	-9.83541
本当の	-9.83561
さず	-9.83569
いいんだ	-9.8357
なくなった	-9.83585
どうしてかな	-9.83595
による	-9.83608
があっても	-9.83615
▁ボクは再び	-9.83619
が熱くなる	-9.83621
シオナの表情は	-9.8363
▁あの図書館に	-9.83633
それほど	-9.83651
の歯車	-9.83652
しくて	-9.83669
ティピィにとって	-9.83676
今度	-9.8374
はじめまし	-9.83742
太陽	-9.83752
医学書を	-9.83766
使われ	-9.83769
が気に	-9.83771
電気を	-9.83778
愛する	-9.83778
になるんだ	-9.83802
手の平に	-9.83808
冷たく	-9.83808
修理は	-9.83824
オルゴールが直った	-9.83828
あー	-9.83832
をしている	-9.83839
永遠の	-9.83862
守る	-9.83864
というのは	-9.83866
町のみんな	-9.83876
君の	-9.83898
ずにはいられな	-9.83901
こわい	-9.83928
町の人たちも	-9.83945
つき	-9.83948
そう言うと	-9.83965
無事で	-9.83987
るほどに	-9.83989
喜んで	-9.83994
しているもの	-9.84019
さん	-9.84032
旅を	-9.84044
人が	-9.84068
急に	-9.84099
ボクの右手	-9.84101
ニンゲンたちに	-9.84119
別に	-9.8412
も問題	-9.84127
▁そこで	-9.84137
ほんの	-9.84137
は無い	-9.84139
んじゃないかな	-9.84186
作業を続け	-9.84229
ボクたちが	-9.8424
小さくて	-9.84244
▁愛	-9.84278
▁ティピィに言われ	-9.84285
しながら	-9.84285
▁小さな少女	-9.84289
らず	-9.84302
▁その言葉に	-9.84305
耐え	-9.84311
でさえ	-9.84331
撃たれた	-9.84361
ニンゲンたちが	-9.84385
光る	-9.84388
しなかった	-9.84433
られるのなら	-9.84435
下が	-9.84472
ニンゲンたちは	-9.84495
どうしても	-9.84504
してくる	-9.8453
ボクの指先	-9.84542
だからこそ	-9.84549
▁それで	-9.84573
ひとりぼっち	-9.84598
あら	-9.84601
耳に	-9.84615
▁ほんとに	-9.84622
おうた	-9.84638
誰かを	-9.84643
にとって	-9.84647
扉が	-9.84652
が壊れて	-9.84667
シオナの手が	-9.8467
ボクが壊してしまった	-9.84709
白く	-9.84736
町の人たちを	-9.84781
▁奥から	-9.84783
目の前で	-9.84806
を見ている	-9.84814
しました	-9.84972
お別れを	-9.84972
世界は	-9.84988
の時	-9.8503
た子供	-9.85085
▁赤	-9.85104
重ねてい	-9.85107
▁男の	-9.85121
もなく	-9.85161
望んでい	-9.85189
ざ	-9.85192
の部品を	-9.85208
町を出る	-9.8524
浮かべ	-9.85293
似ている	-9.85311
それから	-9.85318
▁体	-9.85353
▁映写機の	-9.85363
▁きっとそれは	-9.85381
しき	-9.85388
町の人たちは	-9.85468
▁何が	-9.85478
機械で	-9.8554
きてくれる	-9.85553
待っている	-9.85558
違うよ	-9.8561
となく	-9.85636
まっていた	-9.8573
れたような	-9.85755
の希望	-9.85771
▁あれは	-9.85785
▁どういうこと	-9.85786
追って	-9.85821
▁次	-9.85838
▁あの時	-9.85842
あそこは	-9.85863
しているのだろう	-9.8588
られるよう	-9.85885
悲しみを感じ	-9.85892
▁視界	-9.85901
▁先ほど	-9.85908
▁おそらく	-9.8592
部屋の中	-9.85938
一緒にいて	-9.85957
るまま	-9.85979
▁だからボクは	-9.86002
ニンゲンなんだ	-9.86008
かく	-9.86015
あの笑顔	-9.86028
ないんだ	-9.86028
▁空	-9.86035
したら	-9.86127
変わる	-9.8616
ボクたちを	-9.86167
た気がした	-9.86169
たこと	-9.86212
ってくれた	-9.86362
そうしていた	-9.86369
▁私は	-9.8642
映る	-9.86523
分かっていた	-9.8658
認識	-9.86632
前の	-9.86665
待っていてくれ	-9.867
体の	-9.86747
この施設	-9.86802
バッテリーの	-9.8681
空から	-9.86839
▁それとも	-9.87038
を増	-9.8705
がレイを	-9.87058
この映画	-9.87127
▁相手	-9.87251
▁これで	-9.87259
どこ	-9.87275
▁どうしても	-9.87313
▁その言葉	-9.87377
飛び出し	-9.87414
▁開け	-9.87455
のではない	-9.87512
ティピィの心	-9.87522
▁蓋を	-9.87656
オルゴールの	-9.87728
▁映写機を	-9.87733
外は	-9.87736
こうしている	-9.87797
覚えてる	-9.87817
を目指して	-9.8789
まい	-9.87962
ける	-9.88008
はもちろん	-9.88008
ボクは確信	-9.88071
眠りについ	-9.88125
この町で	-9.88128
歌が	-9.88288
思うと	-9.88291
これを	-9.88308
ティピィの顔	-9.88319
すか	-9.88521
今なら	-9.88566
何かに	-9.8857
気づけなかった	-9.88656
から逃げ	-9.88734
▁だ	-9.88759
に行って	-9.88761
を満たし	-9.88912
▁その表情に	-9.88973
がいる	-9.89022
ただし	-9.89043
こんな町	-9.89063
集まっ	-9.89065
られている	-9.89151
今のは	-9.89164
爆発	-9.89213
▁なぜ	-9.89246
感情は	-9.89342
▁何	-9.89344
▁もしかしたら	-9.89473
離し	-9.89481
▁少しでも	-9.89534
なっていく	-9.89744
だけだよ	-9.89793
さだ	-9.89854
引き返	-9.90091
ずっと一緒にい	-9.90121
んと	-9.90366
▁悲しい	-9.90422
ってね	-9.90448
そのことに	-9.90515
違うの	-9.90542
▁壁に	-9.90566
それって	-9.90612
を遮	-9.90642
抱きしめる	-9.90667
略奪を	-9.90686
不思議そうに	-9.90718
してしまっている	-9.90719
短	-9.90865
シオナの腕	-9.90913
▁胸の奥が	-9.90925
とか	-9.91006
▁身体	-9.9108
▁これから	-9.91119
姿を	-9.91123
が多	-9.91127
▁だけどボクは	-9.91159
まってる	-9.91185
いこう	-9.91195
そんなもの	-9.91249
以上の	-9.91293
種類が	-9.9132
安堵の	-9.91344
ただの	-9.91366
今の	-9.91369
るんだ	-9.91376
ったからだ	-9.914
でいく	-9.91453
寂しく	-9.91655
させない	-9.91767
きっとそうだ	-9.9181
を連れて	-9.9182
泣い	-9.91824
▁同時に	-9.91831
▁ニンゲンに	-9.91845
にいる	-9.91887
しない	-9.92209
物だ	-9.92282
そんなボクを	-9.92302
切	-9.92504
ニンゲンだった	-9.92679
に声をかけ	-9.92808
作る	-9.92907
ボクは何も	-9.93208
をすべて	-9.93227
意味が	-9.93252
体に	-9.9333
▁毎日	-9.9337
られてい	-9.93448
思えない	-9.93456
も一緒に	-9.9346
▁今は	-9.93466
▁悲しみ	-9.93476
悲しそうな顔を	-9.93749
古	-9.93911
ボクは何度も	-9.93991
らは	-9.94043
どうしてか	-9.94061
ボクの中に	-9.94067
なると	-9.94391
端に	-9.94409
所に	-9.9447
▁心	-9.94738
熱くなってい	-9.94744
手を置	-9.94797
変わっ	-9.94816
へ向かっ	-9.94823
できることは	-9.94879
難	-9.9488
あげ	-9.94983
唇を噛	-9.95005
い子だ	-9.95045
溢れ	-9.95094
強くなる	-9.95127
ってしまったの	-9.95252
すら	-9.95264
ボクの気持ち	-9.9544
のものでは	-9.95488
▁優しく	-9.9551
に近づく	-9.95578
気付いてい	-9.95658
みて	-9.95754
を動かし	-9.95771
無理だ	-9.95798
▁水	-9.9581
酸化	-9.95892
なり	-9.95895
笑顔を浮かべ	-9.96051
マッドさんから	-9.9609
悲しみに	-9.96105
を見つけ	-9.96251
たとき	-9.96263
か分からない	-9.96281
二百年分の	-9.96311
を残して	-9.96392
背中に	-9.96428
大切なんだよ	-9.96578
▁窓	-9.96586
▁なに	-9.96598
もたくさん	-9.9664
開ける	-9.96658
が帰ってきた	-9.96702
を認め	-9.96805
さが	-9.96814
きり	-9.96843
最中	-9.96848
てしまえば	-9.96925
だろうし	-9.9709
おいて	-9.97169
に入っていた	-9.97201
青年の	-9.97224
▁オルゴール	-9.97296
息子さんの映画	-9.97328
描いた	-9.97442
▁青年	-9.97639
してみる	-9.97764
たもの	-9.97842
言葉だ	-9.97855
そう言った	-9.98674
続けてい	-9.98773
落と	-9.98801
が描かれてい	-9.98895
までは	-9.98898
ことなんだ	-9.99072
▁その笑顔	-9.99241
▁ふ	-9.99351
な物	-9.99416
交換	-9.99561
忘れてしまった	-9.99637
寝かせ	-9.99657
にしよう	-9.99767
頭を下げた	-9.99916
じゃなかった	-9.99926
何を	-9.99967
の言葉は	-10.0008
▁そんなこと	-10.0014
直すこと	-10.0025
出されるように	-10.0029
を変え	-10.0033
様子	-10.0046
ダメ	-10.0051
道を	-10.0056
半分	-10.0061
助ける	-10.0066
のような物	-10.0081
切っ	-10.0082
もないの	-10.0087
愛は	-10.0088
▁とても	-10.0089
高	-10.009
呼吸	-10.0108
残っていた	-10.0109
説明を	-10.0124
残され	-10.0129
しないと	-10.0139
表情だ	-10.0154
てね	-10.0157
を悟	-10.0159
それは少し	-10.0164
足	-10.0165
という感情だ	-10.0168
汚れた	-10.0175
頬が	-10.0179
▁ボクたち	-10.0209
かなければならない	-10.0244
れる	-10.0247
出す	-10.026
に入ると	-10.0275
崩れ落ち	-10.0282
見ること	-10.0289
かに	-10.0297
を知らない	-10.0357
▁これ	-10.0384
レイと	-10.0393
動かす	-10.0405
れてしまった	-10.046
ものなんだ	-10.0466
じゃないんだ	-10.0482
▁ボクに	-10.0493
▁一	-10.0497
流	-10.051
の世界を	-10.0514
しかない	-10.052
撃	-10.0539
っか	-10.0556
の音	-10.061
当たり前	-10.062
シリンダー	-10.0626
工場の	-10.0643
すように	-10.0653
をかけ	-10.0674
が少し	-10.0686
気付	-10.0692
崩れ落ちた	-10.0693
家で	-10.0702
顔は	-10.0705
いけれど	-10.0709
帰って	-10.0722
くれていたんだ	-10.0725
傷つけ	-10.0772
物の	-10.0778
ダメだ	-10.0795
を感じてい	-10.0798
目の前に	-10.0808
自分の手	-10.0819
いることが	-10.0846
歌声	-10.0856
わかって	-10.0856
あとは	-10.0871
外に出	-10.089
の半分	-10.0912
いたことだ	-10.0928
▁シオナはボク	-10.094
の一つ	-10.0999
を抱き寄せ	-10.1012
るために	-10.1045
マッドさんの店に	-10.1047
ることができなかった	-10.1066
思	-10.1069
頭を下げ	-10.1094
全く	-10.1113
あるはず	-10.1113
が直	-10.1132
りの	-10.1142
の口	-10.1143
可能	-10.1145
体を	-10.1169
悲しげに	-10.1204
崩して	-10.1217
それがボクの	-10.1257
であること	-10.1262
とは違	-10.1263
を分解する	-10.1274
いつもと違	-10.1277
時間だ	-10.1285
の高さ	-10.129
軽	-10.1295
たよ	-10.1297
文字	-10.1302
な顔で	-10.1304
物を	-10.1331
そうする	-10.1341
▁これ以上	-10.1363
なくて	-10.1376
大切に	-10.1379
たちに	-10.14
フィロイドだ	-10.1403
にする	-10.141
もいいの	-10.1417
きっとそう	-10.1425
目的	-10.1428
壊	-10.1429
と比べて	-10.1432
マッドさんを笑顔に	-10.1434
といって	-10.1436
▁その温もり	-10.1441
ってるよ	-10.1443
だっこして	-10.1455
▁礼拝堂	-10.1475
目を閉じ	-10.1479
締め付けられる	-10.148
出していた	-10.1526
がいた	-10.1532
たとしても	-10.1542
熱くなっ	-10.1545
倒	-10.157
食事を	-10.1583
離	-10.1603
あったよ	-10.161
繰り返す	-10.1615
▁見た	-10.1637
むの	-10.1637
が分かる	-10.1647
楽	-10.1667
愚か	-10.1675
私たちフィロイド	-10.1707
が伝わ	-10.1707
思っている	-10.1711
ているようだ	-10.1717
つながれ	-10.1725
リビングへ	-10.174
ばれ	-10.1755
一枚の	-10.1766
わかっている	-10.179
再生する	-10.1794
▁あの時計	-10.1797
でもいい	-10.1801
程	-10.1818
たようだ	-10.1824
機械の	-10.1829
寂し	-10.1842
だと思う	-10.1846
生きてい	-10.1859
映画は	-10.1863
してきた	-10.1867
動かしてみる	-10.1871
に過ぎ	-10.1877
無表情	-10.1908
感情を学	-10.1928
と言っ	-10.1937
る音	-10.1945
ことだった	-10.1959
宿	-10.1961
時計の	-10.1967
のパーツが	-10.1967
連れて	-10.1972
多	-10.1995
窓から	-10.1998
に向	-10.2002
と言って	-10.201
あの青年	-10.2014
きたんだ	-10.2015
▁安堵	-10.2023
気づいている	-10.2032
言える	-10.2034
正	-10.2048
出て	-10.2061
ているかのように	-10.2065
を回	-10.2075
分の温もり	-10.2088
置き	-10.2089
以前	-10.2089
かえって	-10.2122
フィロイドの	-10.2143
眠	-10.22
を立てて	-10.2202
ってい	-10.2204
確かめ	-10.2207
あなたたち	-10.221
部分に	-10.2225
にならない	-10.2225
を感じて	-10.223
かけら	-10.2234
を見せ	-10.2235
見せ	-10.2262
▁顔を	-10.2264
おかしいの	-10.2269
って言	-10.228
▁遠く	-10.2298
その意味が	-10.2305
の爆発	-10.2314
いていない	-10.2328
っていう	-10.2328
が見	-10.2332
本当	-10.2344
放し	-10.2347
いけない	-10.2353
食べて	-10.2361
られていた	-10.2367
せられ	-10.2372
▁口	-10.2377
シオナたち	-10.239
るが	-10.2417
▁その表情	-10.2425
の絵は	-10.2437
路	-10.244
は皆	-10.2445
について	-10.2445
を満たしてい	-10.2456
作業	-10.2457
は無理だ	-10.2469
ボクは叫	-10.2478
数が	-10.2489
わか	-10.2496
傍にいる	-10.2502
にとっては	-10.2504
吐く	-10.2549
を開けて	-10.2556
を目	-10.2563
そうなの	-10.2564
中に	-10.2565
輪	-10.2567
に感じた	-10.257
に向けて	-10.2576
が動いた	-10.2592
▁指	-10.2597
してみ	-10.26
そこで	-10.2605
頑張って	-10.262
ボクと	-10.2636
▁きっとこの	-10.2638
見ているだけで	-10.2639
べ	-10.264
があるのか	-10.2642
追	-10.2643
後ろ	-10.2643
めた	-10.2645
欲し	-10.2649
守	-10.2654
たんです	-10.2656
背負う	-10.2666
順番に	-10.2677
治	-10.2684
を合わせる	-10.2685
ならその	-10.2692
を取り出し	-10.2693
▁近く	-10.2695
頭に手を	-10.2716
は必ず	-10.273
瞳を	-10.2746
目を閉じて	-10.2748
くないよ	-10.276
時計を壊してしまった	-10.276
かせて	-10.2761
なくなる	-10.2779
館長	-10.278
のよ	-10.2783
込んでくる	-10.2789
ティピィの頭を	-10.2792
の光景を	-10.2792
かなくちゃいけない	-10.2795
不幸に	-10.28
▁それはとても	-10.2807
をするように	-10.2808
んじゃないか	-10.281
もう少し	-10.2817
広がる	-10.282
工具	-10.2829
一緒にいた	-10.2832
▁そのメロディ	-10.2834
知っていた	-10.2842
捕	-10.2855
ったんだろう	-10.2858
絵を	-10.2861
を見ると	-10.2865
耳	-10.2876
町を出	-10.288
なんてない	-10.2882
てしまいそうな	-10.2885
でき	-10.2885
会う	-10.2888
が広がってい	-10.2889
しばらく	-10.2892
しめ	-10.2893
あふれ出し	-10.2897
に似て	-10.2904
発	-10.2918
ってきた	-10.2924
白	-10.2933
の映画	-10.2944
ちょっと待って	-10.2944
大粒の	-10.2945
顔で	-10.2945
並んでいる	-10.2946
そう答え	-10.295
頼	-10.2959
未	-10.296
びっくりした	-10.2961
どれだけ	-10.2963
ちゃう	-10.2965
発した	-10.2968
死ぬ	-10.2969
試	-10.2972
何を言って	-10.2975
大好き	-10.2975
うれしそうに	-10.2977
薄暗い	-10.2979
その途中	-10.2983
ちゃんと	-10.2987
たままの	-10.2996
うなったの	-10.3002
会え	-10.3003
あるはずだ	-10.3005
ときは	-10.3006
取	-10.3007
溜まっていた	-10.3007
出て行く	-10.301
見せて	-10.301
差し出した	-10.302
映画なん	-10.3021
なにか	-10.3025
ているだけ	-10.3026
全て	-10.3026
づく	-10.3026
いつしか	-10.3026
▁悲しみを	-10.3027
寒	-10.3028
ができ	-10.3032
声をかけ	-10.3033
奥から	-10.3035
されていた	-10.3038
られるように	-10.3038
きながら	-10.304
▁ティピィはボクの	-10.3046
棚	-10.3048
静かな	-10.3049
見つか	-10.3064
喜	-10.3069
自分のこと	-10.3073
これまで	-10.3077
に声をかけた	-10.3078
男の	-10.308
瞬	-10.3082
握	-10.3085
顔をしている	-10.3087
ボクの手を	-10.3089
大切な	-10.3089
案内してくれ	-10.3092
てはいけない	-10.3093
知った	-10.3096
集	-10.3097
お母さん	-10.3099
げ	-10.31
シオナはボクに	-10.3101
ここに来	-10.3104
休	-10.3107
理解	-10.3113
言	-10.3114
が入ってい	-10.3115
確か	-10.3128
ハンドル	-10.3129
頑張	-10.3129
をかけた	-10.3134
温かさ	-10.3135
けて	-10.3138
範囲	-10.3141
全員	-10.3143
座	-10.3146
染ま	-10.3147
チクチク	-10.315
自分の右手を	-10.3157
当たる	-10.3159
下げて	-10.3162
他	-10.3165
パネル	-10.3165
方向	-10.3166
な表情で	-10.3167
叩	-10.3167
こわ	-10.3168
ながらも	-10.3168
未来	-10.3169
違	-10.3171
の手が	-10.3171
可能な	-10.3172
じ	-10.3174
さみし	-10.3175
お互い	-10.3175
で大丈夫	-10.3175
ライト	-10.3176
どれも	-10.3177
ップ	-10.3178
ころの	-10.3179
実	-10.3182
満たしてい	-10.3184
明らか	-10.3186
についていた	-10.3187
ご飯	-10.3189
衝撃	-10.319
油	-10.319
走	-10.3191
施設の	-10.3194
オ	-10.3195
こすれ	-10.3196
その時	-10.3196
振り返	-10.3198
なでて	-10.3199
機材	-10.32
天	-10.3201
位置	-10.3202
為に	-10.3202
階	-10.3203
自分の手を重ね	-10.3203
まっすぐ	-10.3203
館内	-10.3203
画面	-10.3203
貰いたい	-10.3203
たときに	-10.3205
選	-10.3206
教えてくれた	-10.3206
揺れ	-10.3206
どうすれば	-10.3207
手のひら	-10.3208
しても	-10.3208
付け	-10.3209
決め	-10.3209
助	-10.321
忘れ	-10.321
無駄	-10.3211
流れ始める	-10.3211
拳	-10.3212
達	-10.3213
が必要な	-10.3213
比べ	-10.3213
取り出す	-10.3214
全	-10.3214
確	-10.3214
この曲	-10.3215
地面	-10.3215
オルゴールを直	-10.3221
乗り越え	-10.3221
きてくれた	-10.3223
自然	-10.3223
再生できる	-10.3228
一切	-10.3229
▁暗闇	-10.3232
他の	-10.3232
を探した	-10.3233
の口調	-10.3235
一人っきり	-10.3235
▁何度	-10.3236
張	-10.3236
真っ赤	-10.3237
曇	-10.3237
▁いつまで	-10.3237
怖	-10.3238
っぽ	-10.3238
以外に	-10.3238
寄り添	-10.3238
▁部屋の	-10.324
べき	-10.324
三人	-10.3241
正確	-10.3241
って思って	-10.3243
落ちる	-10.3243
▁ボクの頭	-10.3243
に近づけ	-10.3243
手伝	-10.3243
人を助け	-10.3245
の下に	-10.3245
分解してい	-10.3247
存在である	-10.3248
▁いつ	-10.3248
間にも	-10.3248
音を立て	-10.3249
目を閉じた	-10.325
彼は	-10.325
▁そんなシオナの	-10.3252
てもらえる	-10.3252
厳し	-10.3252
立ち上が	-10.3254
欲	-10.3254
ソファに	-10.3254
経	-10.3256
崩れ	-10.3257
現	-10.3257
何故	-10.3257
満	-10.3259
そこは	-10.3259
をつないで	-10.326
吸	-10.326
大事	-10.326
撮った	-10.3261
渇	-10.3261
撮	-10.3261
に乗	-10.3261
分か	-10.3261
工場内	-10.3263
真っ黒	-10.3264
時間がかかってしまっ	-10.3264
人が亡くなった	-10.3265
興味	-10.3265
をぎゅっと	-10.3266
を置いた	-10.3266
争	-10.3266
ぱ	-10.3267
ほほえ	-10.3267
計	-10.3267
働	-10.3267
漂	-10.3268
古びた	-10.3268
襲撃	-10.3269
告	-10.3269
抱きかかえ	-10.3269
半	-10.327
ド	-10.327
父さん	-10.327
懐かしい	-10.327
意	-10.327
バ	-10.3271
機	-10.3271
なくちゃ	-10.3271
母さん	-10.3272
ボロボロ	-10.3272
笑みを浮かべ	-10.3272
足を止めて	-10.3272
に包まれ	-10.3272
汚	-10.3272
を差し出す	-10.3272
クマの	-10.3273
を一	-10.3273
加	-10.3273
守ってあげ	-10.3274
密着	-10.3274
静	-10.3274
百	-10.3274
恐	-10.3274
屋	-10.3274
口調で	-10.3274
句	-10.3275
は相変わらず	-10.3275
ク	-10.3275
脱	-10.3275
二度と	-10.3276
活	-10.3276
処	-10.3276
ズ	-10.3276
図書館を出	-10.3276
ピンク	-10.3277
交	-10.3277
テ	-10.3277
勝	-10.3277
いたい	-10.3277
んでしまう	-10.3277
の瞳	-10.3277
液	-10.3277
然	-10.3277
好きな	-10.3278
同	-10.3278
ワ	-10.3278
和らいでい	-10.3278
陽	-10.3278
囲	-10.3279
ついた	-10.3279
ずいぶん	-10.3279
ボ	-10.3279
非	-10.3279
ジ	-10.3279
容	-10.3279
学	-10.3279
映画を見	-10.3279
爆	-10.3279
喧嘩	-10.3279
婚	-10.3279
設	-10.3279
-	-10.3279
腕や足	-10.3279
御	-10.328
甲	-10.328
舞	-10.328
念	-10.328
t	-10.328
脚立	-10.328
丈	-10.328
夫	-10.328
連鎖的に	-10.328
台	-10.328
沈	-10.328
腰	-10.328
が枯	-10.328
予	-10.328
少子化	-10.328
救い	-10.328
神	-10.328
第二世代	-10.328
雷	-10.328
再生機	-10.328
今日もお	-10.328
露	-10.328
ツ	-10.328
報	-10.328
じゅう	-10.328
例	-10.328
慈	-10.328
を分かち合	-10.328
初期	-10.328
刹	-10.328
効	-10.328
那	-10.328
を飲むと	-10.328
凄	-10.328
慌	-10.328
至	-10.328
重荷	-10.328
▁クレヨンで描かれ	-10.328
ウ	-10.328
ソ	-10.328
フィロイドの店主が	-10.328
ョ	-10.328
四角形のチップ	-10.328
投影機	-10.328
支配者である	-10.328
砂	-10.328
自己満足	-10.328
飲料水の確保	-10.328
転	-10.328
位	-10.328
泣く	-10.328
こんにちは	-10.328
ふたつ	-10.328
サラサラして	-10.328
ュー	-10.328
乾いた音	-10.328
事態	-10.328
喪失感	-10.328
安堵した	-10.328
完成	-10.328
専	-10.328
本の海	-10.328
涙を流せ	-10.328
爆風	-10.328
町から持ち出した	-10.328
疑問を	-10.328
給	-10.328
資	-10.328
門	-10.328
整	-10.328
よっぽど	-10.328
毎日絵を描いてい	-10.328
E	-10.328
▁まさか	-10.328
あの歌を聴	-10.328
から使えそうなものを持って	-10.328
これがそのまえのひ	-10.328
そこなら	-10.328
できるわけ	-10.328
に備えられ	-10.328
に近づき	-10.328
に関する	-10.328
のタイトルを	-10.328
の片隅で	-10.328
を利用し	-10.328
を掴	-10.328
を迎え	-10.328
を途切れさせ	-10.328
バランスを崩し	-10.328
ピストンロッド	-10.328
ホコホコ	-10.328
ボクは誰	-10.328
ポーズ	-10.328
ヤ	-10.328
丸	-10.328
傘を	-10.328
充満し	-10.328
君とシオナの	-10.328
命令	-10.328
咄嗟に	-10.328
垂	-10.328
壊れてしまっていて	-10.328
妨げ	-10.328
幸せな気持ちに	-10.328
恋愛	-10.328
息子さんから送られて	-10.328
悲しさを癒や	-10.328
持ってきてくれ	-10.328
映像	-10.328
沸	-10.328
点灯	-10.328
経口摂取	-10.328
経年劣化	-10.328
自信	-10.328
苦笑しながら	-10.328
落ちている	-10.328
誓	-10.328
身体をおろしていく	-10.328
針	-10.328
限界	-10.328
階段を	-10.328
雨に濡れ	-10.328
飾られている	-10.328
ぴ	-10.328
金属製の	-10.328
▁幸い	-10.328
もらいたい	-10.328
を察し	-10.328
元気が出	-10.328
務	-10.328
戸惑ったよう	-10.328
本を読んでいる	-10.328
c	-10.328
l	-10.328
▁人工皮膚で覆われ	-10.328
▁自分自身の存在を	-10.328
▁若い	-10.328
あんまり	-10.328
い匂いが	-10.328
お二人さん	-10.328
お祭り	-10.328
がずっと続けばいい	-10.328
ができあがって	-10.328
が入り交じ	-10.328
こみ上げる	-10.328
せっかく	-10.328
その勢い	-10.328
できることなら	-10.328
という行為は知って	-10.328
とおぼしき	-10.328
と思われる	-10.328
と書かれた	-10.328
に託し	-10.328
に逃げ込ん	-10.328
の前に持って	-10.328
はボクの左側	-10.328
ひどい	-10.328
みんなと約束した	-10.328
わかんない	-10.328
を交互に見	-10.328
を失う	-10.328
を抱いていた	-10.328
を拾い	-10.328
ガラス	-10.328
クリと	-10.328
コネクタを	-10.328
セ	-10.328
ボクの役目だ	-10.328
ボタンに指を	-10.328
マンホール	-10.328
人を思いやる	-10.328
人工皮膚	-10.328
今にも消え	-10.328
仲直り	-10.328
伴	-10.328
俯く	-10.328
傾	-10.328
像に	-10.328
剥き出しの機械部品	-10.328
勢いで	-10.328
厭わず	-10.328
召	-10.328
可愛が	-10.328
号	-10.328
呪	-10.328
品の一覧	-10.328
嬉しそうに歌うシオナの横顔	-10.328
手を引かれ	-10.328
手首から先	-10.328
操	-10.328
文字が浮かび上がってきた	-10.328
普段	-10.328
暮らす	-10.328
最低限の	-10.328
本能	-10.328
格	-10.328
棄された	-10.328
次第に	-10.328
歯車と同じ大きさの物	-10.328
気にせず	-10.328
気軽に触れ	-10.328
湯気	-10.328
溝	-10.328
滅	-10.328
演	-10.328
無理をさせて	-10.328
算された	-10.328
絵が貼られ	-10.328
緑	-10.328
育	-10.328
胴体	-10.328
自室に	-10.328
言葉を制	-10.328
許可	-10.328
誤	-10.328
負担を	-10.328
貯	-10.328
貼った	-10.328
貼り付	-10.328
邪魔	-10.328
重いもの	-10.328
重要な	-10.328
野郎だ	-10.328
閉ざされ	-10.328
雨で濡	-10.328
精	-10.328
証	-10.328
▁気づけば	-10.328
▁かつて	-10.328
▁教会に戻る	-10.328
あとさんじっぷん	-10.328
いてくれたからだよ	-10.328
おねがい	-10.328
こうなっちゃった	-10.328
とっさに	-10.328
と呼ぶ	-10.328
に暮れてい	-10.328
の衝動	-10.328
も元気	-10.328
を閉め	-10.328
イガイガ	-10.328
チップのことを聞いた	-10.328
作りかけのフィロイドの	-10.328
促	-10.328
具合でも悪い	-10.328
呻	-10.328
寄りたいところ	-10.328
寝息	-10.328
昼	-10.328
晩	-10.328
景色	-10.328
条件	-10.328
珍しい	-10.328
留	-10.328
目を丸くし	-10.328
綺麗だ	-10.328
肝心	-10.328
記録の中にはない	-10.328
証明する	-10.328
風景	-10.328
首をかしげ	-10.328
馬鹿	-10.328
驚いた顔を見せた	-10.328
ティピィをだきしめてくれ	-10.328
思い知らされる	-10.328
目を覚ました	-10.328
"	-10.328
CLOSE	-10.328
H	-10.328
K	-10.328
S	-10.328
ar	-10.328
s	-10.328
u	-10.328
▁re	-10.328
▁そんなわけ	-10.328
▁図書館の中は	-10.328
▁本に記されている	-10.328
▁母親はいつも	-10.328
▁言われた通り	-10.328
▁足音を	-10.328
ぁあああああああああ	-10.328
いろいろ	-10.328
おそるおそる	-10.328
おてつだいしてくれ	-10.328
おとうさんとおかあさん	-10.328
おわかれ	-10.328
お客さん	-10.328
お留守番	-10.328
かもしれません	-10.328
から解放	-10.328
が到着する	-10.328
が及	-10.328
きっとマッドさんだって探し	-10.328
ぎこちな	-10.328
くじけ	-10.328
ことが出来る	-10.328
この町は電気が通って	-10.328
じぶんたちが	-10.328
ずいぶんと古めかしい	-10.328
せんせー	-10.328
そう言われる	-10.328
その日あった出来事	-10.328
その決意が揺	-10.328
それっきり	-10.328
だいすき	-10.328
だらりと	-10.328
つぎはぎだらけの	-10.328
てはくれなかった	-10.328
で売って	-10.328
どきどき	-10.328
なきゃ	-10.328
なく教会まで行	-10.328
なんてあるんだろうか	-10.328
にも満たない	-10.328
に囚われ	-10.328
に描かれ	-10.328
に絡	-10.328
に背中を向ける	-10.328
に背中を預ける	-10.328
に集中してい	-10.328
のすぐ脇には	-10.328
の分解を始め	-10.328
の歴史	-10.328
は困難を極め	-10.328
みを孕んでいる	-10.328
めずらし	-10.328
よろしくね	-10.328
をこらえて	-10.328
を凝ら	-10.328
を向いたまま	-10.328
を委ね	-10.328
を帯びてい	-10.328
を弔う	-10.328
を把握	-10.328
を洗	-10.328
を追いかけ回し	-10.328
を送って	-10.328
グル	-10.328
ケッ	-10.328
ジャンル	-10.328
チップを再生できるように	-10.328
チップを貸してください	-10.328
ティピィと約束を交わ	-10.328
ティピィのそばにいてあげ	-10.328
バックアップ	-10.328
パーツを繋ぎ合わせてでも	-10.328
ファンが	-10.328
ベ	-10.328
ボクの頭を拭い	-10.328
ボクはそんなことを思っ	-10.328
ポカポカし	-10.328
マニュアル	-10.328
ランプ	-10.328
レイといっしょにい	-10.328
不気味	-10.328
事を優先	-10.328
仕草	-10.328
付着して	-10.328
低下	-10.328
何十年も	-10.328
何百年も	-10.328
余所	-10.328
価値観	-10.328
値	-10.328
傷を負った	-10.328
出て行け	-10.328
利己的	-10.328
努	-10.328
労働力	-10.328
勝手に入ってき	-10.328
募	-10.328
印	-10.328
口を噤ん	-10.328
可愛いよ	-10.328
右手の手袋を	-10.328
含	-10.328
唄い続け	-10.328
因	-10.328
圧	-10.328
基盤	-10.328
声が届く	-10.328
好きではな	-10.328
嬉しそうな顔	-10.328
宙	-10.328
家庭	-10.328
小さく跳ね	-10.328
年頃の男女な	-10.328
幸せになれると思うんです	-10.328
庇ってくれ	-10.328
弊	-10.328
弾かれ	-10.328
後ろを向	-10.328
忍	-10.328
怒鳴られる	-10.328
息を飲	-10.328
悩み	-10.328
悪の道へと足を踏み入れ	-10.328
惜し	-10.328
惨	-10.328
所有者	-10.328
拙	-10.328
拾ってきた	-10.328
接	-10.328
推測	-10.328
携帯用の	-10.328
擦	-10.328
支度を	-10.328
救う	-10.328
料理で使う油	-10.328
旧時代の思想に囚われた	-10.328
最初から	-10.328
棚に戻	-10.328
椅子に腰掛けて	-10.328
歌を唄って	-10.328
歩みを止め	-10.328
歩みを進め	-10.328
段	-10.328
母親と父親	-10.328
気が引け	-10.328
気が遠くな	-10.328
汚染された	-10.328
涙の量が増え	-10.328
涼しげ	-10.328
減	-10.328
温ま	-10.328
準備できたよ	-10.328
溜め	-10.328
漏れてい	-10.328
煙が	-10.328
爆発に巻き込まれ	-10.328
町のみんなを助けたい	-10.328
登	-10.328
百五十	-10.328
相変わらず薄暗く	-10.328
眉間にしわ	-10.328
硬	-10.328
祭壇	-10.328
祭壇の飾り付け	-10.328
移り	-10.328
突き飛ばされ	-10.328
立ち向か	-10.328
簡単に	-10.328
結局	-10.328
縛り付け	-10.328
繋が	-10.328
考え事をしていた	-10.328
胸の奥がじんわりと温かくなる	-10.328
胸の奥が小さく痛	-10.328
自分自身を	-10.328
自問	-10.328
自身を大切にする	-10.328
術	-10.328
袖を引	-10.328
解決	-10.328
記憶を整理	-10.328
訪れない	-10.328
許せな	-10.328
話してくれないか	-10.328
誘	-10.328
誰かの役に立つ	-10.328
質	-10.328
路地裏	-10.328
軋みを	-10.328
迂回し	-10.328
透明な	-10.328
過ぎた	-10.328
鈍	-10.328
雪崩が起きて	-10.328
静まりかえ	-10.328
顔を埋めて	-10.328
顔を見合わせ	-10.328
飛んでい	-10.328
飲み込まれ	-10.328
香りが	-10.328
▁to	-10.328
▁どれだけ時間が経った	-10.328
お兄さんが作った	-10.328
シオナの言っていることは	-10.328
会って欲しくない	-10.328
声を殺して	-10.328
▁図書館から借りてきた本を	-10.328
▁答えが出ない	-10.328
▁絹のような	-10.328
▁腰に回された	-10.328
うっすら	-10.328
えへへー	-10.328
かみ合ってい	-10.328
とどめる	-10.328
の苦しみ	-10.328
はずっと一人ぼっちな	-10.328
は容易に	-10.328
ふさいで	-10.328
みなさんのおかげです	-10.328
る暇はな	-10.328
を向ける	-10.328
を捜索する	-10.328
タンク	-10.328
ティピィのすすり泣く声	-10.328
パーツの型番	-10.328
マッドさんの宝物	-10.328
一日一枚書いているという	-10.328
一礼して店を出	-10.328
与えてあげ	-10.328
優しく撫で	-10.328
出ている取っ手を回	-10.328
剥き出しになった機械部品	-10.328
危なかった	-10.328
唱	-10.328
大丈夫ってことだよ	-10.328
尽くしてい	-10.328
帰ってこない	-10.328
幸せを感じ	-10.328
廊下を	-10.328
心がオレンジ色になる	-10.328
心当たり	-10.328
心配そうな顔	-10.328
怒りを感じている	-10.328
想像でき	-10.328
慌てた様子で	-10.328
我慢	-10.328
持たざるニンゲン	-10.328
指を絡め	-10.328
振り向	-10.328
探しにいこう	-10.328
故障の原因に	-10.328
時間が続けばいいと	-10.328
椅子にふんぞり返	-10.328
止めどなく流れ	-10.328
生き抜く	-10.328
画用紙にクレヨンを走らせ	-10.328
着替えて	-10.328
祈りを捧げる	-10.328
神妙な顔	-10.328
穴	-10.328
簡単なこと	-10.328
落ち込ん	-10.328
言われたとおり	-10.328
詰め込ん	-10.328
迎え入れてくれ	-10.328
なくなっちゃう	-10.328
家を出	-10.328
易	-10.328
▁その頬には涙	-10.328
▁差し出された	-10.328
▁折角	-10.328
▁爆発の規模	-10.328
▁真新しい	-10.328
いっしょにいてくれる	-10.328
お皿	-10.328
が豊かになって	-10.328
が鳴り	-10.328
させてくれる	-10.328
さび付い	-10.328
ためらいを	-10.328
ているようにも見え	-10.328
で埋められ	-10.328
とおもっていた	-10.328
なくなっちゃった	-10.328
にとっては不快	-10.328
に先導され	-10.328
に捧げる	-10.328
の絵の枚数	-10.328
は言えないの	-10.328
みなさん	-10.328
よく分からないけど	-10.328
わけに	-10.328
をまともに	-10.328
を潤	-10.328
を覆う	-10.328
を見ようとしない	-10.328
を覗かせ	-10.328
を通して	-10.328
タブレットと呼ばれた	-10.328
タブレットの表面	-10.328
ニ	-10.328
レイのためなんだ	-10.328
ロール	-10.328
ンと肩を	-10.328
乱暴に	-10.328
乾ききっ	-10.328
円	-10.328
同士	-10.328
呼べ	-10.328
守りたいものを	-10.328
小説の	-10.328
慣れない左手で	-10.328
懸命に	-10.328
探しに行くんだ	-10.328
掲げ	-10.328
敵	-10.328
新聞の	-10.328
旧	-10.328
書籍	-10.328
本の場所を	-10.328
案内する	-10.328
正方形の光	-10.328
済ま	-10.328
溶	-10.328
環境	-10.328
町の人たちを解放	-10.328
目の前に現れた	-10.328
着替えを	-10.328
笑顔が見たい	-10.328
箱の横から	-10.328
納得がい	-10.328
絶対の絶対だ	-10.328
肌に触れ	-10.328
背後から	-10.328
荒野を	-10.328
語りかけて	-10.328
近い距離	-10.328
逃げ切れ	-10.328
通じる扉	-10.328
限りなくニンゲンに近	-10.328
随分と	-10.328
電子端末を	-10.328
頼まれて	-10.328
▁シオナの歌うメロディ	-10.328
▁いつになく	-10.328
▁その異常	-10.328
▁そんな彼を	-10.328
すすり泣く声が	-10.328
と言った方が	-10.328
な音が響い	-10.328
の場所まで案内	-10.328
は徐々に	-10.328
は柔和	-10.328
もう慣れている	-10.328
やさしく	-10.328
ティピィにできることをしな	-10.328
二人を抱きしめ	-10.328
取り戻せる	-10.328
向き合	-10.328
床に転が	-10.328
抑揚のない声で	-10.328
映写機の電源を	-10.328
灯し	-10.328
無意識に	-10.328
生きていく上で	-10.328
空を見上げ	-10.328
紐解	-10.328
迫って	-10.328
通路に	-10.328
週間	-10.328
いくらでも言ってやる	-10.328
は見当た	-10.328
格好	-10.328
114』	-10.328
▁そこまで言って	-10.328
▁その背中を見送	-10.328
かぞく	-10.328
が損傷	-10.328
ぐちゃ	-10.328
ここにある本	-10.328
じょう	-10.328
その白い物体は	-10.328
たしなめ	-10.328
ためらって	-10.328
っていうのもある	-10.328
とっくに	-10.328
と表示され	-10.328
なにもかも	-10.328
な長さ	-10.328
に従って	-10.328
に手伝ってもらいながら	-10.328
のリズム	-10.328
の目から見ても	-10.328
の真ん中に	-10.328
はっきり言って	-10.328
は互いに	-10.328
を保って	-10.328
を呼び	-10.328
を挟	-10.328
を表している	-10.328
を見るのは初めて	-10.328
ギリ	-10.328
シオ	-10.328
シャフト	-10.328
ティピィの寿命を縮める	-10.328
ユーザー	-10.328
一気に	-10.328
世話になっ	-10.328
乱	-10.328
人と人との	-10.328
仄暗	-10.328
処理	-10.328
刺さっ	-10.328
半永久的に	-10.328
哀れみなんかじゃ	-10.328
善	-10.328
塵	-10.328
外装を	-10.328
小さい子	-10.328
広場で歌を歌う	-10.328
採用	-10.328
敷	-10.328
料理	-10.328
欠伸	-10.328
比較	-10.328
気中の埃が	-10.328
浅	-10.328
潤滑油	-10.328
灯り	-10.328
焦	-10.328
皺を	-10.328
相手の喉	-10.328
瞳の	-10.328
礼拝堂の奥	-10.328
積み上	-10.328
緩やかな	-10.328
耗	-10.328
能力	-10.328
興奮	-10.328
複雑	-10.328
覚えのある	-10.328
足音が響い	-10.328
足音は	-10.328
這	-10.328
陰り	-10.328
その小さな身体を抱きしめ	-10.328
確保	-10.328
が見つかった	-10.328
を埋める	-10.328
店を出	-10.328
感情機能の暴走	-10.328
残念だったね	-10.328
面に落ち	-10.328
▁その文字は	-10.328
お姉	-10.328
から順に	-10.328
がそう訊く	-10.328
この意識は	-10.328
にはめ込まれていたパーツ	-10.328
を殴った	-10.328
以外の	-10.328
何らかの	-10.328
候	-10.328
儚げ	-10.328
再生機器がな	-10.328
声を出すことも	-10.328
姿勢にな	-10.328
恩返し	-10.328
気分が	-10.328
灰色に	-10.328
確認しようと	-10.328
磨	-10.328
笑みをこぼして	-10.328
膝をついて	-10.328
裂	-10.328
躊躇うことなく	-10.328
遠雷	-10.328
重大な	-10.328
兄	-10.328
から雨が降るよ	-10.328
元あった場所	-10.328
町へと戻っ	-10.328
略奪するニンゲン	-10.328
▁何しに	-10.328
5	-10.328
▁その場から	-10.328
お済みで	-10.328
きっかけ	-10.328
たった一つの	-10.328
とおなじ	-10.328
に到着した	-10.328
の数は増え	-10.328
は誰のため	-10.328
を注	-10.328
を狙	-10.328
エントランスを抜け	-10.328
予想	-10.328
儀式	-10.328
呼んで	-10.328
壁際に	-10.328
尾	-10.328
川	-10.328
是非	-10.328
植	-10.328
決して止ま	-10.328
沈んでいる	-10.328
泥	-10.328
移動させていた	-10.328
置き手紙	-10.328
肺	-10.328
警	-10.328
in	-10.3281
▁あんた	-10.3281
▁充電用の	-10.3281
▁次の瞬間	-10.3281
フィロイドの修理方法	-10.3281
胸の奥を温めて	-10.3281
傍にいてあげ	-10.3281
いた青白い光	-10.3281
おこって	-10.3281
それが何なのか	-10.3281
た時のことを	-10.3281
ってもいられな	-10.3281
に張り	-10.3281
は素	-10.3281
やめろぉ	-10.3281
らめく	-10.3281
を揺らした	-10.3281
コリと	-10.3281
全然	-10.3281
列	-10.3281
取り去	-10.3281
奥の部屋	-10.3281
治療	-10.3281
生き残る	-10.3281
てみせ	-10.3281
シーツ	-10.3281
八万	-10.3281
否定	-10.3281
怪我はして	-10.3281
9	-10.3281
▁ボクはそれを受け	-10.3281
ニンゲンになれた	-10.3281
了	-10.3281
仲間だ	-10.3281
到底	-10.3281
報復	-10.3281
思い返せば	-10.3281
書いていた	-10.3281
最初の	-10.3281
概念	-10.3281
気をつけてね	-10.3281
涙を止めること	-10.3281
無数の	-10.3281
痛みが走っ	-10.3281
結婚	-10.3281
至近距離にいた	-10.3281
請	-10.3281
酷いことを	-10.3281
靴底	-10.3281
▁真っ白な	-10.3281
▁絵の中の少女	-10.3281
をめくって	-10.3281
フィロイドが手を取り	-10.3281
レイの演奏があ	-10.3281
封じて	-10.3281
感じがした	-10.3281
重ねられ	-10.3281
▁そう言いながら	-10.3281
が晴れ	-10.3281
したばかりの	-10.3281
すまない	-10.3281
に住んでいる	-10.3281
をみつけた	-10.3281
キミ	-10.3281
役に立った	-10.3281
方がまし	-10.3281
正確に言うと	-10.3281
膝の上に	-10.3281
至る所	-10.3281
露わになっ	-10.3281
面影を	-10.3281
音楽を奏で	-10.3281
に唯一残っている	-10.3281
何年も	-10.3281
判断	-10.3281
心からの笑顔を	-10.3281
窓のカーテンを	-10.3281
▁大切な人	-10.3281
いた人たちが	-10.3281
ことは確かだ	-10.3281
の記録を	-10.3281
まったく	-10.3281
も増えた	-10.3281
ジメ	-10.3281
ボクの身体は	-10.3281
人に聴いて	-10.3281
工具をバッグに	-10.3281
置されている	-10.3281
えらい	-10.3281
に等しい	-10.3281
きれい	-10.3281
ためだけに	-10.3281
でしょうか	-10.3281
のような冷たいもの	-10.3281
みつからない	-10.3281
を守るため	-10.3281
ボクの正体がばれて	-10.3281
何ができるん	-10.3281
寂しい思いをして	-10.3281
高く積まれ	-10.3281
華奢な肩を	-10.3281
▁ボクの声に反応	-10.3281
こういう	-10.3281
喜ばせ	-10.3281
意識が戻らない	-10.3281
暗記	-10.3281
▁ボクが求めていた	-10.3281
うまく頭の中で	-10.3281
のかはわからない	-10.3281
作業台	-10.3281
増幅	-10.3281
少し大きめの	-10.3281
強くなれ	-10.3281
感情を搭載した	-10.3281
時間の感覚がなくなっ	-10.3281
注いでいた	-10.3281
花々	-10.3281
▁その身体は	-10.3281
このくらいの	-10.3281
充電できなく	-10.3281
異変が	-10.3281
表現	-10.3281
ずっと耐えていた	-10.3281
そうすれば	-10.3281
に気づかれないように	-10.3281
の数々	-10.3281
は存在しなかった	-10.3281
クリーム色	-10.3281
上がっていくの	-10.3281
何人もの	-10.3281
殺傷	-10.3281
現管理者	-10.3281
成	-10.3281
役に立て	-10.3281
いたせい	-10.3281
の爆弾だった	-10.3281
マント	-10.3281
感じ取	-10.3281
脚立の上で	-10.3281
設定	-10.3281
ドロ	-10.3281
▁その悲しみが	-10.3281
あくまで	-10.3281
一方的に	-10.3281
をくみ取る	-10.3281
バイ	-10.3281
パク	-10.3281
レジ	-10.3281
回避	-10.3281
捨てちまった	-10.3281
歌ってよ	-10.3281
真実	-10.3281
約	-10.3281
th	-10.3281
▁頭を撫でると	-10.3281
きょうかい	-10.3281
▁テーブルに	-10.3281
一致し	-10.3281
低い位置	-10.3281
さらに顔が熱くな	-10.3281
が見えている	-10.3281
どっち	-10.3281
のしたをとおって	-10.3281
年代	-10.3281
明かり	-10.3281
涙を流しながら	-10.3281
笑うようになった	-10.3281
自動的に	-10.3281
一人の少女	-10.3281
反響	-10.3281
武器	-10.3281
生きていける	-10.3281
方法があるかもしれない	-10.3281
反対側	-10.3281
混じ	-10.3281
発電	-10.3281
この感覚を	-10.3281
元に戻	-10.3281
もニンゲンに近い	-10.3281
ボクたちはあまりに無	-10.3281
バッテリーの交換	-10.3281
お待たせし	-10.3281
お葬式の準備	-10.3281
の絵本	-10.3281
終わりを告げ	-10.3281
検索をかけ	-10.3281
気絶し	-10.3281
マッドさんの声が	-10.3281
だということも	-10.3281
にあてが	-10.3281
まえから	-10.3281
戻ってこない	-10.3281
時代	-10.3281
起動	-10.3281
足取り	-10.3281
愛は永遠	-10.3281
悲しそうに見える	-10.3281
時に見つけた	-10.3281
背後に	-10.3281
虚ろ	-10.3281
々しく	-10.3281
したいことな	-10.3281
その場所に行く	-10.3281
ぽろ	-10.3281
をすればいいの	-10.3281
困ったような	-10.3281
▁その光景	-10.3281
悲しみをぬぐい	-10.3281
ちがう	-10.3281
ボコ	-10.3281
休める	-10.3281
小さく呟	-10.3281
感謝	-10.3281
暴力	-10.3281
澄んだ音色	-10.3281
生み出す	-10.3281
異様	-10.3281
の安全を	-10.3282
ここまで来た	-10.3282
は自らの	-10.3282
謝ろう	-10.3282
させた	-10.3282
その理由が	-10.3282
の山を見上げ	-10.3282
ましいこと	-10.3282
モード	-10.3282
出会ったとき	-10.3282
喧嘩ばかり	-10.3282
をかばうようにして	-10.3282
休んで	-10.3282
場を離れることに	-10.3282
機械の右手を見つめ	-10.3282
本を読み	-10.3282
ぽわ	-10.3282
部品を持ち	-10.3282
非道	-10.3282
いったん	-10.3282
つま先	-10.3282
より重	-10.3282
内容	-10.3282
心地よ	-10.3282
の不調	-10.3282
終わりました	-10.3282
ついに	-10.3282
に力が入らな	-10.3282
メイ	-10.3282
上部に	-10.3282
左腕	-10.3282
▁その声は	-10.3282
できる方法はない	-10.3282
言ってくれれば	-10.3282
返事	-10.3282
なるべく早く帰	-10.3282
ねじを	-10.3282
天気	-10.3282
故障してしまった	-10.3282
の端を	-10.3282
をかぶ	-10.3282
考えたく	-10.3282
▁ずいぶんと	-10.3282
の映写機を探していた	-10.3282
らなくても	-10.3282
変わらず	-10.3282
ボクに譲って	-10.3282
あまりに無駄	-10.3282
た方が良い	-10.3282
外へ出て	-10.3282
扉の前	-10.3282
替え	-10.3282
頑張ってくれたんだ	-10.3282
の問題だろう	-10.3282
一人じゃないと	-10.3282
いなくなってしまった	-10.3282
オルゴールのハンドルを回す	-10.3282
朽ち	-10.3282
写真屋さん	-10.3282
深くなっていく	-10.3282
▁ティピィちゃんのこと	-10.3282
その悲しみは	-10.3282
たまり	-10.3282
時計の部品	-10.3282
▁逃げ	-10.3282
なさい	-10.3282
その表情が	-10.3282
対処	-10.3282
まみれ	-10.3282
ニンゲンもフィロイドも	-10.3282
仕掛け	-10.3282
見たことがない	-10.3282
顔が熱くなるのを	-10.3282
ものを使っている	-10.3282
撮った映画	-10.3282
図書館の蔵書	-10.3282
途方	-10.3282
を背中から抱き	-10.3283
ティー	-10.3283
が込められてい	-10.3283
に必要とされる	-10.3283
ボクは今から	-10.3283
受け入れてくれる	-10.3283
ティピィのあたま	-10.3283
一つずつ	-10.3283
を開けてみる	-10.3283
フワ	-10.3283
目的地	-10.3283
私たちにとって	-10.3283
正面	-10.3283
半身	-10.3283
脱力していた	-10.3283
ンター	-10.3283
搭載されていない	-10.3283
が起こっている	-10.3283
にあう	-10.3283
重にも	-10.3283
もなしに	-10.3283
手を離し	-10.3283
使えない	-10.3283
聞いたもの	-10.3283
りそうなもの	-10.3283
大きさの歯車	-10.3283
見下ろした	-10.3283
められている	-10.3283
無茶	-10.3283
オン	-10.3283
毎日一枚ずつ	-10.3283
様子を見てくる	-10.3283
電子	-10.3283
ていなかったの	-10.3283
ひとまず	-10.3283
不可能	-10.3283
隣にいた	-10.3283
▁その瞳	-10.3283
頬ずりを	-10.3283
その歌は	-10.3283
に手をかけ	-10.3283
液体	-10.3283
地下水	-10.3283
映画監督	-10.3283
▁その絵を見	-10.3283
てはならない	-10.3283
床に寝かせ	-10.3283
小さく震えてい	-10.3283
▁シオナのオルゴールを直した	-10.3283
捨てられている	-10.3283
輪になって	-10.3283
造られて	-10.3283
もおかし	-10.3283
変えられない	-10.3284
が零れている	-10.3284
▁その裏に	-10.3284
この図書館にある	-10.3284
涙をぬぐって	-10.3284
の原因を	-10.3284
向かおうと	-10.3284
手助け	-10.3284
▁まずい	-10.3284
と思います	-10.3284
を押しつけ	-10.3284
人たちを笑顔に	-10.3284
が入ってきた	-10.3284
▁いつも涙を流している	-10.3284
いけばいいんだ	-10.3284
が来る前	-10.3284
のことを知って	-10.3284
どこへ	-10.3284
地下	-10.3284
受け取	-10.3284
つまら	-10.3284
絵を見せて	-10.3284
不完全	-10.3284
意外	-10.3284
泣き続ける	-10.3284
を預け	-10.3284
曇らせ	-10.3284
大きな鞄	-10.3284
きのう	-10.3284
らなおさら	-10.3284
膨ら	-10.3284
▁顔を合わせ	-10.3284
はそれを許して	-10.3284
組み立て	-10.3284
▁雨が降らな	-10.3284
のパーツは	-10.3284
ボクを閉じ込めた	-10.3284
ピンク色	-10.3284
わらず	-10.3284
▁男の人は	-10.3284
図書館に置いて	-10.3284
押しつける	-10.3284
私も同じだ	-10.3285
▁フィロイドには	-10.3285
▁少年は	-10.3285
▁一時	-10.3285
スリ	-10.3285
本を並べて	-10.3285
指さす	-10.3285
もう死んで	-10.3285
ここはこう	-10.3285
気まず	-10.3285
そうなんですか	-10.3285
たどり着く	-10.3285
写っている	-10.3285
椅子に座っている	-10.3285
共存と調和	-10.3285
▁お葬式の	-10.3285
▁ティピィが図書館を出	-10.3285
のメロディを	-10.3285
暗くなった	-10.3285
▁父親はいつも	-10.3285
教えてもらった	-10.3285
早く帰って	-10.3285
現れ	-10.3285
あっち	-10.3285
言葉を続け	-10.3285
端子	-10.3285
ふたりとも	-10.3285
あたたか	-10.3285
響き	-10.3285
ができていない	-10.3285
マッドさんの役に立ちたい	-10.3285
書かれてい	-10.3285
▁一体	-10.3285
チップを入れ	-10.3285
引きずるようにして	-10.3285
怒らせ	-10.3285
どこか悲しげな	-10.3285
わるい	-10.3285
できれば	-10.3285
めまい	-10.3285
がいな	-10.3285
▁そうはさせ	-10.3285
あの場所に	-10.3286
にたどり着くまで	-10.3286
ほぼ	-10.3286
ようとしている	-10.3286
できる装置	-10.3286
なくとも	-10.3286
風が強く	-10.3286
半ば	-10.3286
一句	-10.3286
仲が良	-10.3286
青い少女が待つ	-10.3286
青年の死	-10.3286
のことについて	-10.3286
もう謝	-10.3286
年以上	-10.3286
▁途端に	-10.3286
▁ティピィは悲しげな表情	-10.3286
▁ただでさえ	-10.3286
追い詰め	-10.3286
困ったように	-10.3286
確かめたい	-10.3286
恐れがあ	-10.3286
造られた	-10.3286
優しいんだね	-10.3286
の先を	-10.3286
建物を壊す	-10.3286
声を漏らす	-10.3286
怒りを感じる	-10.3286
歌い出す	-10.3286
ティピィちゃんの両親	-10.3286
殺す	-10.3286
優しく見つめて	-10.3286
歩道	-10.3286
襲われ	-10.3286
音が聞こえた	-10.3286
▁皆が	-10.3286
どこか懐かしい	-10.3286
暗くなる	-10.3286
がひどく痛ん	-10.3286
▁言葉だけ	-10.3286
はあるかな	-10.3287
が工場内に響い	-10.3287
わぬ	-10.3287
一言	-10.3287
体から力が抜け	-10.3287
との約束	-10.3287
ティピィの知らない人	-10.3287
自分自身の	-10.3287
に伝える	-10.3287
がこすれあう	-10.3287
の願いなの	-10.3287
▁ボクも同じように	-10.3287
と密着して	-10.3287
雨が降り	-10.3287
必死になって	-10.3287
昨日と同じように	-10.3287
反対	-10.3287
滑り	-10.3287
見ることができなかった	-10.3287
▁剥き出しの	-10.3287
のためにボクができること	-10.3287
き上がって	-10.3287
ティピィの仕事	-10.3287
こぼし	-10.3287
どれだけ時間が	-10.3287
加えて	-10.3287
奴ら	-10.3287
オルゴールの歯車	-10.3287
胸の奥に温かさを感じ	-10.3287
いくつかの本	-10.3287
照れてる	-10.3288
動作	-10.3288
が違っ	-10.3288
ケーブルを	-10.3288
思い切り	-10.3288
無魂	-10.3288
▁シオナは笑みを絶や	-10.3288
押しつけてくる	-10.3288
照れ	-10.3288
いっそ	-10.3288
▁理想だけ	-10.3288
が零れてしま	-10.3288
冷たい	-10.3288
毎日描いてい	-10.3288
ことが嬉しいんだ	-10.3288
大切だから	-10.3288
交わ	-10.3288
わざ	-10.3288
せめて	-10.3288
必要があるのだろうか	-10.3289
見つけられ	-10.3289
長い間	-10.3289
手が止まって	-10.3289
が空い	-10.3289
笑顔にする	-10.3289
すべての本	-10.3289
ボロボロになって	-10.3289
笑みを浮かべながら	-10.3289
見つけたんだ	-10.3289
使用	-10.3289
ボクは足を止め	-10.3289
逃げ出した	-10.3289
を作っていた	-10.3289
表情を見せ	-10.3289
雨音	-10.3289
落ち着け	-10.3289
襲撃者	-10.329
足りない	-10.329
楽しみ	-10.329
置いてあった	-10.329
を見つめるティピィの	-10.329
の世代は	-10.329
息を吸う	-10.329
手首	-10.329
を渡り	-10.329
私が撮	-10.329
マッドさんの持ってい	-10.329
シオナの顔が	-10.329
ボクの胸の奥が温かくな	-10.329
方法を考え	-10.329
どんな意味	-10.329
を堪える	-10.329
ボクの服を	-10.3291
▁右手に	-10.3291
▁両親は	-10.3291
ずっと昔から	-10.3291
▁いつも泣いている	-10.3291
良かったのに	-10.3291
流れていな	-10.3291
大切なものを	-10.3291
重く	-10.3291
中にあった	-10.3291
落としながら	-10.3292
だった頃の	-10.3292
その絵は	-10.3292
怪我をしている	-10.3292
酷な	-10.3292
▁ただ一つ	-10.3292
消えてしまう	-10.3292
を眺め	-10.3292
してみることに	-10.3292
を練り歩く	-10.3292
息子さんの映画を見せてあげた	-10.3292
ことが怖	-10.3292
覚えてしまう	-10.3292
シオナの言葉が	-10.3293
▁ボクは意を決して	-10.3293
の絵日記	-10.3293
体中	-10.3293
オルゴールを回していた	-10.3293
が崩れ落ちていく	-10.3293
ただ近くに	-10.3293
▁ティピィがボクの胸に	-10.3293
果たして	-10.3293
手袋を外して	-10.3293
ればいいんだけど	-10.3293
きびすを返して	-10.3293
ニンゲンの子供	-10.3293
ティピィは顔を	-10.3293
ることさえ	-10.3293
顔を見るのは	-10.3293
雨が降り出し	-10.3293
信じて	-10.3293
がこぼれ落ち	-10.3293
見ていない	-10.3293
働き	-10.3294
外傷	-10.3294
町の人々	-10.3294
すぐに帰ってくる	-10.3294
ほほえむ	-10.3294
のフィロイドが	-10.3294
ボクも同じ	-10.3294
ボクは走り	-10.3294
▁あっ	-10.3294
来たという	-10.3294
▁シオナの身体	-10.3294
が許されて	-10.3294
乗り越えられ	-10.3294
来ちゃったんだね	-10.3294
この場所で	-10.3294
ひね	-10.3294
争う	-10.3294
▁理由は	-10.3295
フィロイドとの	-10.3295
そしたら	-10.3295
のことを心配して	-10.3295
構え	-10.3295
読みたい	-10.3295
人が亡くなったとき	-10.3296
口からは	-10.3296
望む	-10.3296
しちゃう	-10.3296
伸ばしている	-10.3296
をもって	-10.3296
の時間がかかってしまった	-10.3296
▁工場内に	-10.3296
旅じゃない	-10.3296
はどうしようもなく	-10.3297
レイは私の	-10.3297
知らない人	-10.3297
誰もいない	-10.3297
左手で	-10.3297
細かい	-10.3297
いなくならないよ	-10.3297
させてもらうよ	-10.3297
ボクの耳に	-10.3297
ディスクが回	-10.3297
いつもの場所に	-10.3297
愛おしい	-10.3297
可愛らしい	-10.3297
椅子から	-10.3297
われている	-10.3297
買い物をし	-10.3297
▁ボクはその笑顔	-10.3298
がすごく熱い	-10.3298
探し続けている	-10.3298
今日はいつもより	-10.3298
さっきまで	-10.3298
のゴミ捨て場で	-10.3298
のおかげで	-10.3298
一瞬だけ	-10.3298
立ち上がった	-10.3299
始めている	-10.3299
心が青く	-10.3299
設備の中	-10.3299
中の部品	-10.3299
渇いた	-10.3299
まとめ	-10.3299
途	-10.3299
知識の中に	-10.3299
腕の中に	-10.3299
に乗って	-10.3299
本を手	-10.3299
ボクはあわてて	-10.3299
一度だけ	-10.3299
しようとしている	-10.3299
ボクは足を進め	-10.33
町の人たちはみんな	-10.33
守った	-10.33
ことしかできない	-10.33
町の人達を	-10.33
愛を失っ	-10.33
それもある	-10.3301
るパートナーが	-10.3301
理解する	-10.3301
ごめんねティピィちゃん	-10.3301
中心に	-10.3301
笑顔でいる	-10.3301
シオナのスープ	-10.3301
上げながら	-10.3301
とても懐かしい	-10.3301
に必要な	-10.3302
どこか悲しそうな	-10.3302
この世界に	-10.3302
何度も撫で	-10.3302
あのひと	-10.3302
がまとわりつい	-10.3302
ればいいの	-10.3302
動け	-10.3302
利きだ	-10.3302
図書館にあった	-10.3303
一人で泣いている	-10.3303
もっと強く	-10.3303
私はレイが	-10.3303
認めたくない	-10.3303
握りしめていた拳	-10.3303
まっている	-10.3303
頼んだ	-10.3303
何故か	-10.3303
私の歌	-10.3303
出されている	-10.3304
とまらな	-10.3304
あの場所で	-10.3304
できるかな	-10.3304
その悲しみを癒やしてあげ	-10.3304
支えられ	-10.3304
かせた	-10.3304
知ってる	-10.3305
本たち	-10.3305
過ごしていく	-10.3305
▁確かにシオナの	-10.3305
しなければ	-10.3305
ぴったりと	-10.3305
くらく	-10.3305
仕事を	-10.3305
お前	-10.3306
動力	-10.3306
手助けして	-10.3306
終わり	-10.3306
なめらかに動	-10.3306
写真を撮っ	-10.3307
指を開閉	-10.3307
開いている	-10.3307
そうしたら	-10.3307
今のボクの	-10.3307
という言葉を	-10.3308
ある可能性	-10.3308
を提	-10.3308
彼女から	-10.3308
についた	-10.3308
すことなく	-10.3308
をのぞき	-10.3308
ボクたちを見	-10.3308
シオナが歌う	-10.3308
寂しさ	-10.3308
隠れている	-10.3309
かせてくれ	-10.3309
の人のこと	-10.3309
そういうこと	-10.3309
椅子に	-10.3309
に埋	-10.3309
を慰める	-10.3309
のことを嫌	-10.3309
活動を	-10.3309
に蓄電	-10.3309
確実に	-10.3309
ることがなかった	-10.3309
を巡	-10.3309
を優しく抱き	-10.3309
たりしたら	-10.3309
賑やかに	-10.3309
に耳を傾け	-10.3309
に陥	-10.3309
喉に	-10.3309
穏やかに	-10.3309
限に	-10.3309
そうやって	-10.331
おくと	-10.331
ドライバーを	-10.331
二人だけで	-10.331
に聞き入ってい	-10.331
らしき	-10.331
聞いてくる	-10.331
テーブルの上に	-10.331
怖い	-10.331
顔に	-10.331
少し離れた	-10.331
ませる	-10.3311
させてしまっ	-10.3311
真っ	-10.3311
奏でられ	-10.3312
ることしかできな	-10.3312
はないはずだ	-10.3312
待ち	-10.3312
こうなる	-10.3313
最後に	-10.3313
温かなもの	-10.3313
を言わない	-10.3313
つかず	-10.3313
ボクは一人でマッドさんの店	-10.3313
がいくつも	-10.3314
酸化したオイルの臭いが	-10.3314
率が	-10.3314
が閉じられ	-10.3314
たいという気持ちが	-10.3314
喉が	-10.3314
込んでいた	-10.3314
▁シオナの声で	-10.3314
はにか	-10.3314
消えている	-10.3314
カップを	-10.3314
ティピィは二百年も	-10.3314
作ってくれ	-10.3315
こんな時間	-10.3315
シオナがくれた	-10.3315
しめてくれた	-10.3315
壁や	-10.3316
ほんとに	-10.3316
なくして	-10.3316
えば	-10.3316
▁その様子に	-10.3316
を持っていく	-10.3316
ニンゲンのために	-10.3317
▁けれどもそれ	-10.3317
シオナはずっと歌	-10.3317
は見つかった	-10.3318
いる方	-10.3318
シオナの笑顔を見て	-10.3318
ただじっと見つめてい	-10.3318
たくさんある	-10.3318
を分解していく	-10.3319
はっきりと	-10.3319
よかったら	-10.3319
は貴重な	-10.3319
場合は	-10.3319
自体は	-10.3319
崩壊は	-10.3319
ることはただ	-10.3319
そうとした	-10.3319
裏道を使	-10.3319
手伝ってくれ	-10.3319
ことも大事	-10.3319
これからどうする	-10.3319
あの歌	-10.3319
疲れて	-10.3319
の手に引かれ	-10.332
回す	-10.332
もちろんです	-10.332
のを使って	-10.3321
ボクはこの子	-10.3321
冷えた	-10.3321
起き	-10.3322
が返	-10.3322
願う	-10.3322
ボクの足に	-10.3322
ようとした	-10.3323
本体に	-10.3323
も増して	-10.3323
ナイフの	-10.3323
年頃の	-10.3323
フィロイドとしての	-10.3323
気を失っている	-10.3323
それ以外に	-10.3323
うなず	-10.3323
周囲の	-10.3323
ボクの顔は	-10.3323
の体重	-10.3323
を修理して	-10.3323
沢山の	-10.3323
▁だけど一つだけ	-10.3324
ときのシオナ	-10.3324
物体	-10.3324
男たちの	-10.3324
おられる	-10.3325
撃たれたか	-10.3325
くてチクチクして	-10.3325
始めていた	-10.3325
ボクは我に返	-10.3325
出来ない	-10.3325
ることはでき	-10.3326
あれだけ	-10.3326
になるはずだ	-10.3326
オルゴールの本	-10.3326
近くの	-10.3326
ぐら	-10.3326
っぽい	-10.3327
フィロイドたちの	-10.3327
後ろから	-10.3327
続けてくれ	-10.3328
戻り	-10.3328
のはよくないと思う	-10.3328
一定の	-10.3328
していった	-10.3328
達も	-10.3328
だめだ	-10.3328
全員で	-10.3329
一人っきりで	-10.3329
▁暗闇で	-10.3329
も心も	-10.3329
を避け	-10.3329
無骨	-10.3329
動かなくなった	-10.3329
▁目の前が	-10.3329
壊れていると	-10.3329
幾分	-10.3329
から発	-10.333
はどんな気持ち	-10.333
いつでも	-10.333
おくれ	-10.333
そんなことを言	-10.333
すんで	-10.3331
を返し	-10.3331
どうにも	-10.3331
し続けている	-10.3332
書の	-10.3332
いつもの口調	-10.3332
ティピィちゃんはもう	-10.3332
ひとりなの	-10.3333
を聞きたい	-10.3333
シオナを見ている	-10.3333
シオナの気持ち	-10.3333
調べられ	-10.3333
どうしても気になる	-10.3333
を倒し	-10.3333
の存在が	-10.3334
ふか	-10.3334
ニンゲンと同じ	-10.3334
しやす	-10.3334
店の扉	-10.3334
の先にいる	-10.3334
失ってしまったかのよう	-10.3335
寂しくて	-10.3335
せば	-10.3335
生か	-10.3335
図書館に行ってくる	-10.3335
ボクは時計を	-10.3335
ないのだろう	-10.3336
行っている	-10.3336
はもう	-10.3336
が割れ	-10.3336
強かった	-10.3337
ボクの前に	-10.3337
わかるけれど	-10.3337
きっとそれは	-10.3337
おうと	-10.3337
散り	-10.3338
▁いつもシオナが	-10.3338
▁ボクはその感情	-10.3339
の人のために	-10.3339
きれない	-10.3339
の行動に	-10.3339
胸に飛び込	-10.3339
ばせ	-10.334
シオナの歌を聴いて	-10.334
顔をしていた	-10.334
と記され	-10.3341
までいく	-10.3342
につなが	-10.3342
今日はお	-10.3342
この町には	-10.3343
雑貨屋さんで	-10.3343
▁目の前の	-10.3343
寄せる	-10.3343
がやっていた	-10.3343
床に倒れ	-10.3344
ボクを見た	-10.3344
お葬式をして	-10.3344
本心	-10.3345
謝って	-10.3345
歌が聞こえ	-10.3345
言うのは	-10.3345
青くなって	-10.3346
れるのも	-10.3346
探していた	-10.3346
せたい	-10.3346
いるのだから	-10.3347
原因が	-10.3347
理想と	-10.3347
った息を	-10.3348
には決して	-10.3348
▁それはあまりに	-10.3348
息子さんの映画を	-10.3348
▁シオナの声が	-10.3348
の箱を	-10.3348
ボクの方を	-10.3348
することなく	-10.3348
ても無駄	-10.3349
ボクが見つかって	-10.3349
さび	-10.3349
ついてきてくれ	-10.3349
そういった	-10.3349
数日	-10.3349
取り外	-10.3349
この二人	-10.3349
オレンジ色のスープ	-10.335
昨日の映画	-10.335
流れていた	-10.335
を一瞥する	-10.335
足で	-10.335
少女を一人に	-10.3351
ないですよ	-10.3351
は世界に一	-10.3351
を助ける	-10.3352
ないぞ	-10.3352
の重さは	-10.3352
な静寂	-10.3352
微笑んでくれ	-10.3352
以上に	-10.3353
▁その答えは	-10.3353
一歩	-10.3353
▁気持ちの	-10.3354
そのたびに	-10.3354
わからないけど	-10.3354
すらも	-10.3354
目を細め	-10.3354
両親が	-10.3354
いいんだけど	-10.3355
もらえると	-10.3355
重たく	-10.3355
この少女の悲しみ	-10.3355
ティピィの肩	-10.3356
メロディが流れ	-10.3356
を選	-10.3356
待っていた	-10.3356
その中でも	-10.3356
生き物	-10.3356
地面に	-10.3356
から貰った	-10.3356
胸の奥が温かくな	-10.3357
を教えてくれた	-10.3357
を走らせ	-10.3357
薄い	-10.3358
天に	-10.3358
る館内	-10.3358
集め	-10.3358
切った	-10.3358
位置に	-10.3358
まっすぐに	-10.3358
揺れる	-10.3358
▁手袋に覆われて	-10.3359
階に	-10.3359
画面に	-10.3359
同じなら	-10.3359
る為に	-10.3359
離れた	-10.3359
の手に自分の手を重ね	-10.336
はいっ	-10.336
▁そこでも	-10.336
のうちに	-10.336
後悔する	-10.3361
材	-10.3361
の奥に足を進め	-10.3361
見つからなかった	-10.3361
必要にな	-10.3361
▁触れる	-10.3361
ためなの	-10.3362
かなって思って	-10.3362
喜んでくれるよ	-10.3362
つかって	-10.3362
▁そのメロディに	-10.3363
に満ち	-10.3363
時計を	-10.3363
一日	-10.3365
チップを再生させ	-10.3365
を襲っ	-10.3365
眠る	-10.3366
光が差し込んできた	-10.3367
暗い	-10.3368
べた	-10.3368
▁そんなシオナの言葉	-10.3368
ティピィのところに行	-10.3368
ことのない	-10.3368
実はね	-10.3368
▁ボクの頭に	-10.3368
その悲しみを	-10.3369
のチップを再生できる機	-10.337
ティピィにあ	-10.337
▁シオナは優しく	-10.3371
全員が	-10.3371
の決意を	-10.3371
油が	-10.3371
衝撃が	-10.3371
この上	-10.3371
になってしまっ	-10.3372
ご飯食べ	-10.3373
町の人たちと一緒に	-10.3373
に視線を向け	-10.3373
換え	-10.3374
曲だ	-10.3375
明らかに	-10.3376
▁見上げた	-10.3376
がこすれ	-10.3377
法もわか	-10.3377
感覚を覚え	-10.3377
この時間	-10.3377
作り物	-10.3377
シリンダーを	-10.3379
それこそ	-10.338
一人なの	-10.338
用意してくれ	-10.338
▁ボクは心から	-10.338
▁ボクは急	-10.3381
何か言葉を	-10.3381
みんなの気持ち	-10.3382
にしない	-10.3382
胸に残	-10.3383
見なかった	-10.3383
ように言う	-10.3383
を大切にし	-10.3383
記憶領域の	-10.3384
▁そして同時に	-10.3384
ボクはここにいるんだ	-10.3384
いいけど	-10.3385
となって	-10.3385
マッドさんの店で	-10.3385
ハンドルは	-10.3385
はどれも	-10.3385
あったかいよ	-10.3385
の隙間から	-10.3386
ライトは	-10.3386
てい	-10.3386
▁館長は	-10.3386
だけではない	-10.3387
追いかけていた	-10.3387
今ある	-10.3387
シオナは悲しそうに	-10.3387
温めてくれ	-10.3387
おち	-10.3387
痛いところは	-10.3388
何かを言い	-10.3389
弱い	-10.3389
しばらくは	-10.3389
会いたい	-10.3389
ティピィを抱き寄せ	-10.339
ボクの右手と	-10.339
どんなこと	-10.339
▁たった	-10.3391
心の中で	-10.3391
▁言いながら	-10.3391
写真屋の館長が	-10.3391
となり	-10.3392
手を止め	-10.3392
も同じように	-10.3392
微笑んでくれた	-10.3392
てるんだ	-10.3392
を求める	-10.3392
▁その口	-10.3393
聞こえる	-10.3393
の姿を探し	-10.3393
私たちも	-10.3393
▁シオナの歌	-10.3393
としない	-10.3393
叩く	-10.3395
シオナに近づけ	-10.3395
その人型の物体	-10.3395
いるのは事実だ	-10.3395
泣いていた	-10.3395
▁触れた	-10.3396
の未来	-10.3396
パネルの	-10.3396
の不安を	-10.3396
が理解でき	-10.3397
▁その中の	-10.3397
の棚	-10.3397
奪うような	-10.3398
の生活が	-10.3398
ずっと一人で	-10.3398
していくように	-10.3398
▁その腕	-10.3398
きっとまだ	-10.3399
▁抱きしめた	-10.3399
▁こうすれば	-10.3399
▁1	-10.3399
▁シオナの家	-10.3399
▁胸が苦しくな	-10.3399
▁テスト起動	-10.3399
▁あふれ出す	-10.3399
▁それが何を意味しているのか	-10.3399
▁お医者さん	-10.3399
▁電話	-10.3399
▁鏡	-10.3399
▁大粒の涙を	-10.3399
ポワポワしよう	-10.3399
▁足下には	-10.3399
ティピィは不安げに	-10.34
は一切	-10.34
ボクはそれ以上	-10.34
そうなると	-10.3401
男の人	-10.3401
一人になる	-10.3401
▁写真屋の館長	-10.3401
可能性がある	-10.3401
の悲しみの	-10.3402
▁館長	-10.3402
かけられ	-10.3403
▁その場所	-10.3403
振り返ると	-10.3404
を伝え	-10.3404
音楽を	-10.3404
んでしょ	-10.3405
▁意識を	-10.3405
暗い図書館	-10.3405
板を	-10.3405
作ってみせ	-10.3406
この間	-10.3406
が当た	-10.3407
製造され	-10.3407
お母さんたち	-10.3407
そんなもん	-10.3407
お茶を	-10.3407
は両手を	-10.3408
継い	-10.3408
悲しんでる	-10.3409
ぶら	-10.3409
うことができ	-10.3409
ようか	-10.3409
に片	-10.3409
滴に	-10.341
で歌っていた	-10.341
▁誰にも	-10.341
っこ	-10.3411
これまでの	-10.3411
女の子に	-10.3411
▁ボクは慌てて	-10.3411
ごとに	-10.3411
ゆる	-10.3411
ことを話し	-10.3412
ボクの胸を	-10.3413
ぬる	-10.3413
く感じる	-10.3415
い空気	-10.3416
えている	-10.3418
がしたい	-10.3418
あの青年の	-10.3418
はいかな	-10.3418
はだいぶ	-10.3419
▁それはニンゲンの	-10.3419
どんなに	-10.342
る前の	-10.342
自分の右手を見	-10.3421
満足そう	-10.3421
の届く範囲	-10.3421
少し軽く	-10.3423
▁ソファに座	-10.3425
分かるよ	-10.3426
価値は	-10.3427
さがし	-10.3427
再生可能	-10.3428
▁けれどそれは	-10.3428
中のデータ	-10.3429
見つけること	-10.3429
紙が	-10.3429
が高い	-10.343
もしかしてこれが	-10.343
が生	-10.343
から聞い	-10.3431
それができる	-10.3431
▁そのことを	-10.3431
ないもの	-10.3432
てくれている	-10.3433
いないけど	-10.3434
と仲良く	-10.3434
が入った	-10.3435
本を借りて	-10.3436
大地を	-10.3436
ほんを	-10.3436
▁ボクの手に	-10.3436
きてくれたんだ	-10.3437
離れ	-10.3437
をすく	-10.3438
その二人	-10.3438
うず	-10.3439
だったんだろうか	-10.3439
亡くなっ	-10.344
シオナの歌声が	-10.344
はダメだ	-10.3441
▁ティピィはボクに	-10.3441
よりもずっと	-10.3441
があったら	-10.3441
▁どうしてシオナは	-10.3444
温かいね	-10.3444
すごいね	-10.3444
他の人	-10.3446
メンテナンスが必要	-10.3446
の事を	-10.3446
はそれほど	-10.3446
をしてしまった	-10.3447
君が	-10.3447
▁その小さな	-10.3448
ることができないの	-10.3448
ター	-10.3449
照れる	-10.3449
できるから	-10.345
それぞれの	-10.3451
量は	-10.3451
の方向	-10.3452
子どもたちが	-10.3452
の生活	-10.3453
▁おそらくは	-10.3453
爆弾を	-10.3453
膝の上で	-10.3453
ないため	-10.3453
を破	-10.3454
女の子は	-10.3454
鼻を	-10.3454
叫んで	-10.3454
この歌は	-10.3454
から流れる	-10.3456
欲していたもの	-10.3457
▁これでは	-10.3458
広場で	-10.3459
会いに行く	-10.3459
中の歯車	-10.346
まるでティピィ	-10.346
認めたく	-10.346
▁いつの間にかボク	-10.346
これだよ	-10.3461
おかしいね	-10.3462
▁ボクは今	-10.3464
が増えた	-10.3464
いらない	-10.3464
飛び出した	-10.3464
笑顔を浮かべている	-10.3465
立た	-10.3466
定の	-10.3466
手書きの本	-10.3466
すばらしいこと	-10.3467
時間だった	-10.3467
ボクにはでき	-10.3467
機械部品の	-10.3469
おお	-10.347
この空気	-10.3471
案内してくれた	-10.3472
にかけていた	-10.3472
の親	-10.3473
の調子	-10.3473
出てきた	-10.3473
身勝手	-10.3473
人生の	-10.3474
ごとの	-10.3474
恐ろしく	-10.3474
の始ま	-10.3475
歯車の	-10.3475
すごいよ	-10.3476
▁シオナはボクを	-10.3476
ります	-10.3477
から降り	-10.3479
立っているの	-10.348
の命を	-10.3482
かり	-10.3483
知らせ	-10.3483
何をする	-10.3483
ものではない	-10.3486
たれ	-10.3486
ならきっと	-10.3487
図書館という	-10.3489
ボクには分か	-10.3491
こそが	-10.3491
いたら	-10.3491
これからも	-10.3492
▁それも	-10.3492
知ったもの	-10.3493
▁全ての	-10.3493
て取	-10.3495
館長が	-10.3495
の少女が	-10.3497
な考え	-10.3498
▁あの男	-10.35
が震え	-10.3503
大量の	-10.3503
を突きつけ	-10.3505
ボクは工場を	-10.3505
もしない	-10.3505
またシオナが	-10.3506
▁その日	-10.3507
部品が	-10.3507
辛く	-10.3507
は壊れたまま	-10.3508
それ以上に	-10.3508
思うよ	-10.3508
空気が	-10.3509
動した人	-10.3509
ボクとシオナの	-10.3509
何か言いた	-10.351
空気に	-10.351
でもないよ	-10.351
抱える	-10.3513
ぶり	-10.3514
良かったら	-10.3515
の中を見回	-10.3517
壊され	-10.3517
しら	-10.3517
二人で	-10.3518
彼女たちは	-10.3518
までにない	-10.352
ひとりで	-10.352
名前は	-10.352
音で	-10.3521
やむ	-10.3521
たことある	-10.3521
に導	-10.3521
ドロシーは	-10.3522
違うんだ	-10.3523
ボクは間違いなく	-10.3528
髪は	-10.3528
ボクらは	-10.3529
の図書館で	-10.353
▁こんなに	-10.3531
数時間	-10.3533
来てから	-10.3534
みず	-10.3534
るっていう	-10.3536
のための	-10.3538
みたいで	-10.3538
▁こんな時に	-10.3538
寒い	-10.3539
別れた	-10.3541
だけれど	-10.3542
流れた	-10.3543
ボクはそんなことを考え	-10.3545
が悲し	-10.3547
ところに	-10.3547
なんだけど	-10.3547
を発	-10.3548
服の	-10.3549
辛いこと	-10.3549
ならない	-10.3549
うれしいの	-10.355
心も	-10.355
気になることがあっ	-10.355
手にした	-10.355
が断	-10.355
立てる	-10.3551
建物が	-10.3551
▁ボクは自分の	-10.3557
が悪い	-10.3559
シオナは出て行く	-10.3559
それでね	-10.3559
ですか	-10.3561
誰かが	-10.3562
を見せてくれ	-10.3563
が停止してしま	-10.3568
の側に	-10.3568
あるのは	-10.357
い形	-10.3571
広場には	-10.3571
▁足が	-10.3572
▁ボクにとって	-10.3572
ってお	-10.3572
ティピィちゃんはそんな	-10.3572
できるの	-10.3573
胸の奥に溜まっ	-10.3573
を物語ってい	-10.3574
▁機械の手	-10.3574
父親に	-10.3574
どうし	-10.3576
笑ってる	-10.3578
ティピィの小さな	-10.3578
▁ニンゲンと	-10.358
知らなかった	-10.3582
たときは	-10.3583
形で	-10.3585
るようになってい	-10.3586
▁中に	-10.3587
はいけない	-10.3588
思い出せ	-10.3589
あったんだ	-10.3589
どこにある	-10.359
成長できない	-10.3592
ったのは	-10.3594
るとき	-10.3595
見た目は	-10.3596
しん	-10.3596
そんなつもりはな	-10.3598
▁どれだけ	-10.36
ているのは	-10.36
ボクは諦め	-10.3601
歩み出	-10.3603
▁薄暗い	-10.3605
▁ちゃんと	-10.3608
▁未	-10.3608
▁死ぬ	-10.3608
ニンゲンとして	-10.3609
びっくりしただけ	-10.361
▁そしてその	-10.361
▁機械の	-10.3612
止めた	-10.3613
最も	-10.3613
こんなことになってしまった	-10.3615
子に	-10.3615
の光	-10.3616
ボクは廃工場に	-10.362
も言って	-10.362
何もしてあげ	-10.362
▁差し出した	-10.3621
用だ	-10.3626
が折れ	-10.3626
血の	-10.3628
るほど	-10.3628
別の	-10.3633
前のモデル	-10.3634
▁それはきっと	-10.3636
いたし	-10.3637
今でも	-10.3638
▁背中に	-10.3639
悲しみも	-10.3641
シオナと出会	-10.3642
誰かの	-10.3642
器を	-10.3644
▁そんな彼女	-10.3644
行きたく	-10.3646
一度分解	-10.3647
気づかな	-10.365
か見	-10.3652
オルゴールも	-10.3655
▁ティピィには	-10.3655
眠っている	-10.3656
図書館だった	-10.3656
やってるん	-10.3656
シオナと一緒にい	-10.3657
お兄さんは	-10.3658
ボクの方に向	-10.3658
みんなが	-10.3659
されたから	-10.3662
るんだろう	-10.3669
枚も	-10.3669
扉は	-10.367
け合	-10.3671
いてくれた	-10.3671
を作っている	-10.3671
わい	-10.3673
そうなら	-10.3678
思いを	-10.3678
場所で	-10.3685
その感情	-10.3686
何を言っている	-10.3688
笑顔の輪が広がってい	-10.3688
場所から	-10.3688
お父さんとお母さんは	-10.3688
機械の手を握	-10.3689
いるよ	-10.3691
町の人は	-10.3693
▁館長が	-10.3697
教会の中	-10.3699
大きくなってい	-10.3699
の感情が	-10.37
てしまいそうなもの	-10.37
の涙だ	-10.3705
ったんだよ	-10.3707
▁時計	-10.3711
うように	-10.3711
守ってい	-10.3715
楽しそう	-10.3719
調べた	-10.3721
ねえ	-10.3722
▁マッドさんの店に	-10.3722
の奥へと	-10.3725
が優しい	-10.3725
▁生きてい	-10.3728
たときには	-10.3728
が切れてしまって	-10.3731
倒れていた	-10.3734
に飛び込んで	-10.3736
からあふれ出	-10.3737
するスープ	-10.3737
ここは	-10.3739
ますから	-10.3739
マッドさんに映画を見	-10.3741
ていたという	-10.3742
てしまって	-10.3743
話は	-10.3743
遅れてしまった	-10.3743
いますか	-10.3744
へと運	-10.3744
▁あとは	-10.3745
▁工具を	-10.3751
▁胸の奥の	-10.3752
躊躇い	-10.3752
ふっ	-10.3752
通りの	-10.3752
る準備	-10.3758
ボクは本当に	-10.3761
そうにない	-10.3762
生み出した	-10.3764
と思うの	-10.3765
つけられる	-10.3765
をくぐり	-10.3767
頭で	-10.3769
かお	-10.377
この廃工場	-10.377
感に	-10.3772
命に	-10.3775
して教会に	-10.3777
ピン	-10.3778
ることも	-10.3781
▁ボクはそ	-10.3783
悲しま	-10.3783
不幸にな	-10.3785
身の	-10.3785
それまで	-10.3786
それにして	-10.3794
今はもう	-10.3795
の不安	-10.3795
その美しい	-10.3797
に大きく	-10.3797
▁目を閉じ	-10.3797
心に	-10.3798
すぐ隣	-10.3799
ポワポワし	-10.3799
かなくて	-10.3799
話し合	-10.38
たんですか	-10.3802
空の	-10.3803
だれ	-10.3803
覚えている	-10.3804
毎日が	-10.3807
たくさんの	-10.3809
そんな顔	-10.3811
当たり前のこと	-10.3811
の状況	-10.3811
シオナはにっこり	-10.3811
▁良かった	-10.3812
▁中身	-10.3812
重なっ	-10.3813
▁悲鳴	-10.3815
オレンジ色で	-10.3816
をなぞり	-10.3816
化した	-10.3817
▁二つ	-10.3819
その中に	-10.3819
だけなんです	-10.382
たんだよ	-10.382
ティピィちゃんはレイ	-10.382
ぞっ	-10.382
不足	-10.382
色に	-10.3823
▁シオナの笑顔	-10.3825
▁様々な	-10.3827
シオナにボクは	-10.3827
▁朝	-10.3827
▁五	-10.3827
▁甘い香りが	-10.3827
▁続いて	-10.3831
後で	-10.3832
彼女はボク	-10.3832
興味を持っ	-10.3834
いち	-10.3837
▁耳を	-10.384
だなんて	-10.3841
▁伸ばした	-10.3843
▁ボクと	-10.3843
▁まずは	-10.3845
の心	-10.3845
探してみ	-10.3845
みんなに	-10.385
い話だ	-10.3851
ボクはニンゲン	-10.3853
絵に	-10.3855
ばい	-10.3856
を考え	-10.3856
ティピィの前	-10.3858
ていたボクを	-10.3859
▁どうやらボクは	-10.3861
▁シオナはボクに	-10.3862
が一番知って	-10.3864
者は	-10.3868
してしまうの	-10.387
時計を壊してしまったこと	-10.3871
間違ってい	-10.3872
はきっと	-10.3873
いくらいに	-10.3876
歩いてい	-10.3877
ということを	-10.3882
とっても嬉しい	-10.3889
だけじゃないの	-10.3891
が語っ	-10.3892
うため	-10.3892
にきたの	-10.3895
日を	-10.3896
その感情は	-10.3897
を切り	-10.3897
の道	-10.3898
なるまで	-10.3909
だったのは	-10.3909
って言っ	-10.391
大丈夫だった	-10.3913
治る	-10.3913
どうしたんだろ	-10.3913
隠すこと	-10.3918
▁じっと	-10.392
静かに目を閉じ	-10.3921
を順番に	-10.3922
▁赤い	-10.3927
あるべきだ	-10.3928
頭をなでる	-10.3928
手を合わせ	-10.3929
メロディに合わせて	-10.393
シオナを背負	-10.3933
返し	-10.3934
答えてくれ	-10.3934
の涙をぬぐう	-10.3937
にまで	-10.3941
もうか	-10.3942
命は	-10.3942
とても嬉しい	-10.3947
なにかって	-10.3947
そばに	-10.3948
理由があるん	-10.3948
何が	-10.3949
れることが	-10.395
いくつかの	-10.3951
ったように	-10.3953
事は	-10.3954
▁いま	-10.396
叫ぶ	-10.3964
ボクは見	-10.3967
愛に	-10.3968
はある	-10.3969
後ろに	-10.3972
る場所	-10.3972
なのかも	-10.3977
映写機の	-10.3977
していたの	-10.3978
シオナを傷つけ	-10.3979
もう会えな	-10.398
を安心させるように	-10.3983
▁カ	-10.3987
がなく	-10.399
ボクとティピィの	-10.3997
こも	-10.3999
▁彼女が	-10.4
▁触れ	-10.4
レイとシオナ	-10.4003
なんだか私	-10.4004
が欠けて	-10.4005
しているから	-10.4006
ボクにとって	-10.4006
ほめられた	-10.4008
中には何	-10.4008
孤独の中	-10.4009
ボクはティピィの頭を	-10.4011
に応えるように	-10.4013
▁バッグ	-10.4014
▁服	-10.4017
笑いあ	-10.4021
を求めていた	-10.4023
を共有してい	-10.4025
▁胸の奥に	-10.4025
口を開	-10.4026
▁エントランス	-10.4027
に駆け寄って	-10.403
▁持ち	-10.4036
▁どちら	-10.404
空調が	-10.4041
ずっと一緒だ	-10.4041
にばれ	-10.4042
その輪	-10.4043
を思い出し	-10.4048
その歌声	-10.4048
何をして	-10.4048
メロディー	-10.4048
▁ようやく	-10.4053
▁不意に	-10.4054
▁自然と	-10.4054
くらいしか	-10.4058
えと	-10.406
ずっと見ていた	-10.4061
▁言葉に	-10.4065
わが	-10.4065
▁人は	-10.4065
▁シオナは少し	-10.4066
ったまま	-10.4067
壊してしま	-10.4073
▁一度	-10.4074
まるで自分	-10.4075
たままだ	-10.4077
色の	-10.4084
▁シオナも	-10.4085
た右手	-10.4086
が会うこと	-10.4087
を呼ば	-10.4087
本当だ	-10.409
出発	-10.4091
シオナは頷い	-10.4097
ティピィちゃんも	-10.41
▁目覚め	-10.4105
良いの	-10.4106
は足	-10.4109
いるだけで	-10.411
柔らかく	-10.411
ても良い	-10.4111
怪我を負って	-10.4115
のがわかっ	-10.4115
ことばかりだった	-10.412
▁中には	-10.4122
よこ	-10.4123
▁そしてそれは	-10.4129
分解する	-10.4129
ようにして	-10.4138
約束をし	-10.4144
何かの	-10.4148
どの本が	-10.4149
レイが一緒に	-10.415
また来	-10.415
を開けば	-10.4159
に届く	-10.416
思うの	-10.4162
▁その場に	-10.4164
それでいい	-10.4178
わからな	-10.418
銃声	-10.4181
路につ	-10.4193
物だった	-10.4193
ので	-10.4213
想いが	-10.4215
はずだから	-10.4222
その中	-10.4223
怪我をし	-10.4225
みんなの	-10.4226
どうしてボクは	-10.4227
駆け抜け	-10.4232
ありがとうレイ	-10.4235
死の	-10.4237
辺りを見	-10.424
ることなんて	-10.4245
言っても	-10.4246
人も	-10.4257
ボクとシオナ	-10.426
だし	-10.4261
と思ったから	-10.4262
▁あいつ	-10.4262
▁その想い	-10.4274
▁銃	-10.4278
▁指先で	-10.4278
あの絵	-10.4278
▁父親は	-10.4279
たニンゲンは	-10.4282
▁カーテン	-10.4286
▁なるべく	-10.4287
おうと思って	-10.4292
嬉しいの	-10.4292
▁どんなに	-10.4296
の話をして	-10.4303
気付い	-10.4308
説明し	-10.4309
多くの人たちが	-10.4312
その中には	-10.4312
ティピィの表情	-10.433
たちのこと	-10.4331
▁いつまでも	-10.4332
できないの	-10.4332
の扉から	-10.4341
▁図書館の奥	-10.4346
ニンゲンを	-10.435
直してくれ	-10.4354
いるのだろうか	-10.4361
ボクを抱き寄せ	-10.4365
が残っ	-10.437
▁分解	-10.4377
するんだ	-10.4381
を差し出し	-10.4384
成長し	-10.439
散ら	-10.44
にし	-10.4416
刻み	-10.4419
▁ボクはこの	-10.4421
進むの	-10.4425
▁そのまま	-10.4428
協力してくれた	-10.4428
言うのなら	-10.4428
ずが	-10.4432
の意味が分かる	-10.4437
くり	-10.4444
人がいる	-10.4452
この工場の	-10.4454
ええと	-10.4456
廃工場に行く	-10.4469
にしていた	-10.4472
▁オレンジ色の	-10.4473
を握り締める	-10.4476
のせいで	-10.4496
▁そうする	-10.4501
が頭の	-10.452
吸い込	-10.4525
その姿を見て	-10.453
からずっと	-10.453
なんだし	-10.4534
ボクを包み込	-10.4535
倒れる	-10.4541
▁抱きしめ	-10.4541
感じたもの	-10.4541
▁図書館の	-10.4552
しがみつく	-10.4557
ーブ	-10.4562
にいくの	-10.4566
居る	-10.4572
▁広場	-10.4572
安ら	-10.4578
シオナたちと	-10.458
諦め	-10.4585
出かけてい	-10.4588
フィロイドを	-10.4589
▁この町	-10.4591
正し	-10.4592
以前に	-10.4595
なので	-10.4599
▁ずっとずっと	-10.46
が訪れ	-10.4608
するとき	-10.4616
マッドさんを笑顔にし	-10.4618
むき出	-10.4621
ように言葉を	-10.4627
ーっと	-10.4629
▁そう思	-10.4629
ブー	-10.4636
確かめる	-10.4638
うなりを	-10.4638
同じくらい	-10.4643
▁図書館に	-10.4659
なっていることに気づ	-10.4661
楽し	-10.4666
思い出	-10.4676
足が	-10.4677
動きを	-10.4679
で満たされてい	-10.4682
とある	-10.4683
じっと見つめてい	-10.4687
ばっ	-10.4688
求めていた世界	-10.4692
その写真	-10.4692
と言える	-10.4707
▁ス	-10.4709
ないと思	-10.4716
しているかのよう	-10.4718
遠い場所	-10.472
捕まってしま	-10.4724
いと	-10.4729
かえってきて	-10.4732
その中で	-10.4757
する必要はな	-10.4763
▁優しい	-10.4771
投影する	-10.4772
言わ	-10.4777
じめ	-10.4779
▁希望	-10.4781
▁何度も	-10.4805
▁彼女は	-10.4805
かなし	-10.4813
メンテナンスを	-10.4815
写真を見	-10.4824
わせれば	-10.4829
どうしようも	-10.483
ていると	-10.4837
を学んでいく	-10.4839
んざ	-10.4849
ずっと三人で	-10.4852
▁みんなを	-10.4857
それは確かに	-10.4857
私の方	-10.4859
目を閉じる	-10.4862
らし	-10.4865
息を吐	-10.4873
そのままハンドルを回	-10.488
に過ぎな	-10.4889
戻ってきた	-10.4899
をするだけ	-10.4903
▁私の	-10.4905
笑ってくれ	-10.4907
たいと	-10.4911
ボクはそう	-10.492
をお	-10.4924
そと	-10.4925
▁ゴミ	-10.4935
のニンゲンは	-10.495
その音色	-10.4951
上手	-10.4959
とお	-10.4962
ようとする	-10.4968
たくなかった	-10.4971
聞かせる	-10.4976
させることは	-10.4981
よくしてくれ	-10.4983
程に	-10.4984
▁早く	-10.499
歩いている	-10.5005
身を隠	-10.5005
▁あなた	-10.5016
つながり	-10.504
もかなり	-10.5065
▁涙	-10.5071
あの光景	-10.5096
れることのない	-10.5098
ゆっくりし	-10.5101
奴	-10.5108
同じ型番の	-10.511
気で	-10.5111
回らない	-10.5134
に訊ね	-10.5136
はずのシオナ	-10.514
たりしない	-10.5145
思い返	-10.5147
伝わら	-10.5169
それがいい	-10.5177
思うこと	-10.518
抱き寄せて	-10.5181
愚かな	-10.5183
そう思ってい	-10.5186
倒れた	-10.5205
少しは	-10.5211
いいなんて	-10.522
むシオナ	-10.5226
さを感じ	-10.5229
するね	-10.5234
倒し	-10.5258
を繰り返す	-10.5267
してる	-10.527
笑顔にしてあげたいと	-10.527
が相手	-10.5274
もそう	-10.5287
目から	-10.5288
▁静かに	-10.5295
ボクのためだと	-10.5306
▁教会	-10.5308
▁もっと	-10.5311
広場に行	-10.5314
避けてい	-10.5315
はねぇ	-10.5317
かけられている	-10.5323
襲撃されている	-10.5353
動かなくなってしま	-10.5362
▁こんなの	-10.5363
詰まってい	-10.5373
にして	-10.5385
切な	-10.539
私たちフィロイドに	-10.5392
平気で	-10.5421
りで	-10.5428
▁家族	-10.5432
しなければいけない	-10.5434
が載ってい	-10.5441
る部分を	-10.5442
考えられ	-10.5451
この人	-10.5457
▁こうして	-10.546
締め付けられるよう	-10.5464
▁ここで	-10.5465
なんなの	-10.5477
ことも可能だ	-10.5482
▁ティピィと	-10.5489
の頭に	-10.5499
外れにある	-10.5499
私はこ	-10.5506
事実なの	-10.5513
狂って	-10.5514
分かるの	-10.5515
この近く	-10.5541
それでボクは	-10.5541
あの時計は	-10.5542
レイって	-10.5546
に会	-10.5547
聞い	-10.555
ほのか	-10.5554
ティピィの身体	-10.5555
大切にして	-10.5584
ついてい	-10.5586
遠くに	-10.5588
材料が	-10.5599
と比べ	-10.5618
システムが	-10.5626
するから	-10.5628
その温もりは	-10.5628
目的の	-10.5631
▁どんな	-10.5635
礼拝堂は	-10.5645
▁大きな	-10.565
ちゃうの	-10.5655
▁「『	-10.5661
がそうしたい	-10.5665
っているもの	-10.5676
▁さらに	-10.5678
の話	-10.5691
で食事を	-10.5726
た文字	-10.5731
が和らいでいるように	-10.5734
いつも怒っ	-10.5734
くないの	-10.5739
はいえ	-10.5746
出来た	-10.5761
絵だ	-10.5765
これ以上は	-10.577
う言ったよ	-10.5773
高さ	-10.5773
ことなく	-10.5779
るつもり	-10.5783
ような気が	-10.5785
驚いたような	-10.5789
▁映写機	-10.5794
知ることができる	-10.5797
顔を上げ	-10.5806
微か	-10.5817
絵を描き	-10.5828
を宿した	-10.583
仕方な	-10.5831
物ではない	-10.5846
崩	-10.5857
からといって	-10.5867
笑みをボクに向け	-10.5869
▁シオナと	-10.5879
感情なんだろうか	-10.5881
の喜びを	-10.5886
ずっと笑ってい	-10.589
声が聞こえ	-10.5905
いつもと違って	-10.5911
歌なの	-10.5914
ニンゲンのそれとは	-10.592
のままでい	-10.5924
▁ボクを	-10.5946
何もない	-10.5967
映画が	-10.5968
堪えきれな	-10.5969
▁目の前	-10.5973
がこの場所に	-10.5975
たから	-10.6013
違うと思う	-10.6017
見られ	-10.6018
フィロイドである	-10.6032
化が	-10.6047
いと思った	-10.6057
押さえながら	-10.6074
の手を握っ	-10.6075
をし	-10.6081
だけはあ	-10.6098
指は	-10.61
話しかける	-10.6155
準備して	-10.6156
当たり前の	-10.6169
は少し	-10.6171
世を	-10.6189
笑顔になって	-10.6218
ボクの感情	-10.6276
ることもできない	-10.6281
▁自分の	-10.629
店を訪れ	-10.6292
ときのマッドさんは	-10.6295
そのものだ	-10.6304
▁シオナは言っ	-10.6308
の隣に座	-10.6336
後に	-10.6344
々な	-10.6348
床に落ちてい	-10.635
▁どうしてシオナ	-10.6352
の傍にいて	-10.6376
外に出る	-10.6413
▁一人	-10.6413
説明	-10.6432
勝手にし	-10.6441
そのせい	-10.6451
▁笑顔	-10.646
大きい	-10.6461
は生まれ	-10.6467
暮らし	-10.6504
雨を	-10.6517
あそこに	-10.652
相当な	-10.6529
どういう	-10.6531
様子を見	-10.6538
になれない	-10.6538
と思い	-10.6545
を見た	-10.655
かる	-10.6554
過ごしてい	-10.6559
量だ	-10.6585
を持つ	-10.6622
やり過ご	-10.6625
のことなの	-10.6662
くなっていた	-10.6672
もそれに	-10.6676
ボクの方	-10.669
くれていた	-10.6697
内部	-10.6701
を笑顔にしたい	-10.671
ボクの存在	-10.6714
シリンダーの	-10.6725
を流す	-10.6764
笑顔を見せ	-10.6768
合っ	-10.6772
はあまりに	-10.6776
することを	-10.6781
した顔	-10.6794
組み込	-10.6805
やが	-10.6805
のようにも	-10.6879
払い	-10.6885
たんだと思う	-10.6896
くことができるの	-10.6901
にならないよう	-10.6907
そこにある	-10.6926
俺に	-10.694
フィロイドなの	-10.6943
町を出て	-10.6975
機械の手を	-10.6984
その少女	-10.6988
質問	-10.6993
必要と	-10.6996
はいる	-10.6999
感情がある	-10.7002
▁本当に	-10.7012
無理なん	-10.7034
何のために	-10.7035
を癒やすため	-10.7042
しはじめ	-10.7059
甘えて	-10.7109
フィロイドたち	-10.7111
を持つフィロイド	-10.7116
た頃の	-10.713
ピースが	-10.7133
▁その途中	-10.7143
だとわか	-10.7144
のピース	-10.7152
たのだ	-10.7152
失っただけ	-10.7168
おっ	-10.7173
感情を持つ	-10.719
甘え	-10.7213
れているようだ	-10.7228
悲しみを癒やす	-10.725
なってくれた	-10.7253
するのに	-10.7264
ために使	-10.7283
が荒	-10.7286
動くこと	-10.7289
の質問	-10.7295
と思うんだ	-10.7299
それに対し	-10.7313
手を動かす	-10.7356
食事の	-10.7368
探している	-10.737
稼働し	-10.7373
の写真を	-10.7381
▁息	-10.7381
出て行った	-10.7384
息子は	-10.7407
満ち	-10.742
に入り	-10.7458
を払	-10.7468
▁倒れ	-10.7471
の手では	-10.7478
の裏	-10.7484
はため	-10.7494
▁奥	-10.7527
を探し	-10.7551
目があっ	-10.7583
すことのでき	-10.7593
笑顔にしたいの	-10.7595
ていかなければならない	-10.7613
のオイルを	-10.7619
怪我し	-10.7639
機器を見つけ	-10.7661
せてしまった	-10.7677
過ごし	-10.7721
作業に	-10.7722
一回	-10.7759
を隠して	-10.7759
仕方	-10.7767
で青年を	-10.7772
荒くな	-10.7797
相当	-10.7798
高く	-10.7806
時間が	-10.7823
に汚れ	-10.784
な量だ	-10.7857
呼吸し	-10.7884
ているだろう	-10.7927
枚くらい	-10.7931
を直して	-10.7935
ことのできない	-10.7979
これかな	-10.8004
たいと思って	-10.8006
そのものなん	-10.8006
には関係	-10.8015
シオナがボクの隣	-10.8018
笑顔にな	-10.8055
悲しそうな顔をし	-10.8057
あのときの	-10.8076
その作業	-10.8101
その曲	-10.8124
マッドさんだ	-10.8141
からさ	-10.815
を忘れてしまった	-10.8203
無表情の	-10.8211
と交換	-10.8212
床に落ち	-10.8221
にすること	-10.8239
この世	-10.8245
物言い	-10.8263
動かなくな	-10.8263
ブ	-10.8289
向かっ	-10.829
たいと思	-10.8294
くれたんだよ	-10.8336
ボクの頬	-10.8378
描かれている	-10.8452
認め	-10.8522
見つける	-10.8527
残し	-10.8529
続けて	-10.8529
この場所に	-10.8537
ことができれば	-10.854
堪えきれ	-10.855
それとは違う	-10.8554
てしまいそうだ	-10.8561
を軽く	-10.8567
うた	-10.8598
ボクに向けて	-10.8634
回し	-10.8634
でこの	-10.866
表情のまま	-10.8678
▁町の様	-10.8692
感じていた	-10.8696
が描いた	-10.87
寄ってきた	-10.8714
笑顔を浮かべてい	-10.8725
和らいでいるように	-10.8777
去	-10.88
喜びを知	-10.8807
しまえば	-10.8824
触って	-10.8825
奪	-10.8836
▁マッドさんの息子さん	-10.8842
そうしたい	-10.887
帰ってきた	-10.8893
詰まっ	-10.8895
システム	-10.8916
の事	-10.8944
とても大切な	-10.8944
材料	-10.8953
われること	-10.8953
くことができる	-10.8983
たちは家族	-10.8987
この言葉	-10.9007
いてくれ	-10.9056
ていけば	-10.9057
見ていて	-10.9065
狂	-10.9071
酸化し	-10.9078
町外れ	-10.9128
口で	-10.9134
を宿し	-10.9176
のせい	-10.9176
平気	-10.9211
せいで	-10.9212
が溢れて	-10.9279
ている最中	-10.9279
避け	-10.9295
の町が襲撃され	-10.9304
を噛みながら	-10.9306
ないか	-10.9318
シオナの傍にい	-10.932
るって	-10.9321
ざっ	-10.9334
▁修理	-10.9337
より強く	-10.934
続け	-10.9354
ってくれたの	-10.9366
スクラップ	-10.9375
笑顔にしてあげたい	-10.9423
変わって	-10.9452
家に帰	-10.946
笑い	-10.947
おま	-10.95
まじ	-10.9508
様子は	-10.9527
悪くな	-10.9544
してたから	-10.955
ってしまった	-10.9557
はずっと泣いてい	-10.9559
に残ってい	-10.9565
は図書館	-10.9584
古く	-10.9588
ゆっくり	-10.9614
▁マッドさんに	-10.9632
が回らな	-10.9639
をしてるの	-10.9649
を残し	-10.9663
同じ型番	-10.9664
くことができ	-10.9677
ボクの足	-10.9699
歩いて	-10.9738
だと言った	-10.9787
悲しいこと	-10.9788
光景は	-10.9808
不安に	-10.9817
もしかしてこれ	-10.9829
ボクはその場	-10.984
るのを感じ	-10.9891
諦めて	-10.9916
内部に	-10.9927
聞かせ	-10.9968
音色を	-10.9997
手に入	-11.0012
笑みを向けて	-11.0033
ついて	-11.0046
あげて	-11.0058
姿	-11.0101
を幸せにしてあげたい	-11.015
持ってい	-11.0161
が内部に	-11.0236
くさせない	-11.0244
使う	-11.025
せれば	-11.0254
そうになりながら	-11.0271
を投影	-11.0281
りたくな	-11.0293
落ち着い	-11.0295
種類	-11.0312
で泣いている	-11.0343
少し遠い	-11.0346
あると思う	-11.0352
震えてい	-11.0365
ないのに	-11.0376
昨日まで	-11.0377
はらん	-11.0381
はなくなったんだ	-11.0385
で満たされ	-11.0393
と同時	-11.0445
短く	-11.0447
ことができなかった	-11.0447
き出し	-11.0454
思う気持ち	-11.0465
ーム	-11.0469
本物	-11.0485
包み込む	-11.0491
略奪	-11.05
遮	-11.0514
気づいてい	-11.0546
にしがみつ	-11.0576
カー	-11.0591
く息を吸	-11.0617
知識があ	-11.0622
小さく息	-11.0628
ずー	-11.0632
を探してい	-11.0638
を描きながら	-11.0648
とずっと一緒にいる	-11.0708
をぐしゃぐしゃに	-11.0712
がここに	-11.0735
差し出し	-11.0751
あの廃工場に	-11.0758
てしま	-11.076
も見え	-11.076
そう思って	-11.0785
子な	-11.079
込んだ	-11.08
マ	-11.0803
ット	-11.082
間違いなく	-11.0824
悟	-11.0844
彼女	-11.0853
するのも	-11.0858
れた絵	-11.0875
くれるだけで	-11.0899
こともできる	-11.0925
だってできる	-11.0959
が並んで	-11.0977
並べ	-11.1004
を開き	-11.1009
成長	-11.1018
人たちが集ま	-11.1025
▁この工場	-11.1036
つめていた	-11.1049
いることに	-11.106
歌おう	-11.106
描き続けた	-11.1096
れたまま	-11.1102
本を開	-11.1108
協力してくれ	-11.1109
長い時	-11.111
町まで	-11.1114
気づけなかったんだ	-11.1145
逃げる	-11.1163
をしたい	-11.1169
飛び出	-11.1179
満ちて	-11.1209
図書館の奥に	-11.1278
ことのできる	-11.1282
なでてくれ	-11.1294
確信し	-11.1324
存在し	-11.1336
届く	-11.1341
すことができ	-11.1341
人工的	-11.136
思って	-11.1362
あげよう	-11.1367
▁ボクはニンゲン	-11.1382
ことができ	-11.1382
出かけ	-11.1388
怪我を負	-11.1403
シオナに声を	-11.1414
二百年分	-11.1431
顔をし	-11.1435
返	-11.1446
▁その様子	-11.1522
目指して	-11.153
調	-11.1544
一緒だから	-11.155
ボクは胸	-11.1562
てしまったのだろう	-11.1565
見ていたい	-11.1576
れてしまう	-11.1576
を共有し	-11.1584
▁ティピィは立ち上が	-11.159
の様子を見て	-11.1596
て欲しいんだ	-11.1597
引く	-11.16
にほめられ	-11.1621
欠けて	-11.1623
したことは	-11.1635
早か	-11.1646
枚	-11.1665
の腕に	-11.1698
眠りにつ	-11.1716
少女の元へ	-11.1763
しつ	-11.1765
悲しそうに	-11.1766
いくつか	-11.1768
く見え	-11.1791
うようにして	-11.1795
遅	-11.1797
涙をぬぐうこと	-11.1798
悲	-11.1816
それに応え	-11.182
認識する	-11.1823
どこか悲し	-11.1837
会って	-11.1894
ボクの背中	-11.1899
謝	-11.1907
町の人たちを助け	-11.191
べきだと	-11.1912
またきて	-11.1919
切り	-11.1925
を考えていた	-11.1932
大切	-11.1945
安心させるように	-11.1962
どうしたんだ	-11.1969
そば	-11.1996
それが嬉し	-11.1997
いだけなんです	-11.2015
呼び止められ	-11.2018
興味を持	-11.2018
ほしい	-11.2029
にっこりと	-11.2033
の背中に	-11.207
をかき	-11.2089
をなぞ	-11.2089
入っていた	-11.209
細く	-11.2095
ってくれて	-11.2098
ろうとする	-11.21
ピ	-11.2104
て教会に	-11.2111
感情を浮か	-11.2124
ント	-11.2128
をくぐ	-11.2132
ボクは涙を流し	-11.2135
生み出し	-11.2146
隣には	-11.2153
重	-11.2157
▁躊躇	-11.2163
しっかりと見	-11.2168
頭をなで	-11.2169
遅れてしまっ	-11.2184
マッドさんに映画を	-11.2196
部分が	-11.2205
えよう	-11.2205
まれて	-11.2207
を助けて	-11.2209
倒れてい	-11.2211
オイルが切れ	-11.2214
込	-11.2221
も遅	-11.2228
呼ばれ	-11.2228
捨てたと	-11.2238
目の奥	-11.225
ように館長	-11.2256
われて	-11.2269
発し	-11.2286
らいだ	-11.2287
どこにい	-11.2294
手を握られた	-11.2305
大きな笑顔の輪	-11.231
あがい	-11.2319
ことばかり	-11.2326
胸の奥が痛	-11.2338
化し	-11.2343
れること	-11.236
このオルゴールを	-11.2364
るスープの	-11.2377
らそうと	-11.238
会えない	-11.2404
シオナと一緒に	-11.2412
を隠せな	-11.2422
も重	-11.2429
呼ばない	-11.2436
シオナに見	-11.2442
立つ	-11.2446
お話	-11.2453
▁その姿を見	-11.2462
してあげられ	-11.2464
▁なぜこんなこと	-11.2471
口を開け	-11.2482
お別れ	-11.2493
シオナに何も	-11.2496
点滅し	-11.2503
るだけじゃ	-11.2511
風に思	-11.2515
考えること	-11.252
を知ら	-11.2521
前と同じように	-11.2524
左	-11.2537
撃たれ	-11.2549
いるようだ	-11.2558
ひとりぼっちなの	-11.2562
壊れていて	-11.2569
しませない	-11.2577
すことに	-11.258
マッドさんのチップ	-11.2581
ティピィを探して	-11.2583
必死に	-11.2598
方が	-11.26
うたう	-11.2604
間違って	-11.262
しなく	-11.2641
向	-11.2645
そんなつもり	-11.2647
何かを思	-11.2649
機器があ	-11.2654
しょだけ	-11.2662
耐	-11.2672
み出す	-11.2673
折れ	-11.2678
壊してしまったの	-11.268
に言われて	-11.2684
を止める	-11.2685
導	-11.2689
くならないように	-11.2695
▁こんな時	-11.2695
成長して	-11.2704
んでいる	-11.2708
間違	-11.2712
重な	-11.2712
えられない	-11.2712
オルゴールを回	-11.2714
引	-11.2719
ティピィはボクの手を	-11.2723
置	-11.2724
くことが	-11.273
残して	-11.2739
辛	-11.2754
細	-11.2755
りたくて	-11.2757
は知ら	-11.2769
にあるんだろう	-11.277
言いたい	-11.2772
しなくちゃ	-11.2793
作って	-11.2796
ためだと言	-11.2797
あの町	-11.2799
恐ろし	-11.2802
勝手な	-11.2804
呼び止め	-11.2805
男たち	-11.2812
微笑んで	-11.2817
すばらしい	-11.2818
になれ	-11.2823
を流した	-11.2825
いてくれるか	-11.2836
悲しみに涙	-11.2837
タ	-11.2854
広	-11.2854
▁膝の	-11.2855
慌てて	-11.2856
廃工場にたどり着	-11.2856
オルゴールが直	-11.2878
の前で	-11.288
人の心	-11.2886
絵を描	-11.2889
太	-11.2894
仲良く	-11.2897
陽光	-11.2899
してくれ	-11.2902
落ちていく	-11.2902
図書館の奥	-11.2906
使われてい	-11.2909
協力して	-11.2914
借りてき	-11.2918
成長でき	-11.292
けられる	-11.292
ませ	-11.2925
礼拝堂	-11.2928
手の届く	-11.2928
突きつけられる	-11.293
なでる	-11.2931
機械の手	-11.2934
わなかった	-11.2939
だいぶ	-11.2942
欲していた	-11.2944
ないほどの	-11.2944
笑っていて	-11.2946
放	-11.2949
見つけた	-11.2949
いるはずの	-11.2949
シオナを安心させ	-11.2952
継	-11.2961
聞	-11.2962
に入ってい	-11.2965
みせます	-11.2967
製造	-11.2972
手を広げ	-11.2972
ーン	-11.2976
信じ	-11.2977
気にしてい	-11.2977
レイがマッドさんを	-11.2981
微笑	-11.2981
のはボクだ	-11.2981
1	-11.2983
鏡	-11.2983
お医者さん	-11.2983
それが何を意味しているのか	-11.2983
胸が苦しくな	-11.2983
誰にも	-11.2983
テスト起動	-11.2983
こうすれば	-11.2983
あふれ出す	-11.2984
ソファに座	-11.2985
右	-11.2986
に笑っ	-11.2991
ほどまで	-11.2991
人型の物体	-11.2993
電話	-11.2993
を抱き	-11.2994
笑顔にし	-11.2994
不安げに	-11.2995
うれし	-11.2995
心配してくれて	-11.3003
思わず	-11.3004
知って	-11.3004
ボクの手に	-11.3005
やっと	-11.3007
るから先に	-11.3007
扉を開け	-11.301
温めて	-11.3012
されていく	-11.3012
とにかく	-11.3013
亡く	-11.3015
あの暗い	-11.3016
求められ	-11.3016
上では	-11.3017
を奪う	-11.302
残ってい	-11.3021
青	-11.3022
はボクの手を取	-11.3025
の記憶領域	-11.3027
何かを言	-11.3028
に会いに	-11.3031
ることがわか	-11.3032
とっても嬉し	-11.3032
折	-11.3033
死んで	-11.3033
追いかけて	-11.3035
理想	-11.3035
あの男	-11.3036
に帰る	-11.3036
テーブル	-11.3038
足を進め	-11.3039
用意	-11.304
なっちゃ	-11.3041
そういえば	-11.3042
ょう	-11.3044
マッドさんの息子さん	-11.3045
気になること	-11.3045
換	-11.3045
起	-11.3046
ボクは慌てて	-11.3049
襲	-11.3051
つないだ	-11.3052
の価値	-11.3054
握った	-11.3055
一緒に暮らし	-11.3055
ティピィは哀し	-11.3055
はどん	-11.3058
ってきたとき	-11.3059
▁何を言っ	-11.3062
を話した	-11.3062
が温かくなる	-11.3063
会いに	-11.3068
よく見	-11.3069
大粒の涙を	-11.3069
近く	-11.3069
る必要はない	-11.3072
の光が差し込んで	-11.3072
離れて	-11.3074
のデータを	-11.3079
方の手	-11.3079
元	-11.3081
足下には	-11.3082
めば	-11.3082
違っている	-11.3083
手袋に覆われ	-11.3083
後悔	-11.3084
開いて	-11.3086
近づけた	-11.3088
大量	-11.3088
その代わり	-11.3089
ところはない	-11.3089
ひ	-11.3089
ティピィに視線を	-11.309
失ってしまった	-11.3093
笑みを見	-11.3095
を前にして	-11.3096
小さな少女	-11.3098
そうじゃ	-11.3099
暖か	-11.31
のは事実	-11.31
を一瞥	-11.3103
今の言葉だ	-11.3104
原因	-11.3104
▁涙を流	-11.3107
愛があるから	-11.3108
あの時計	-11.3108
答えは見つからな	-11.311
箱	-11.311
▁あそこ	-11.3111
書	-11.3117
を聞	-11.3118
決意を	-11.3122
申し訳な	-11.3122
喉	-11.3123
まれていく	-11.3123
手の中に	-11.3124
の奥に痛みを	-11.3124
雑貨屋さん	-11.3125
しておいて	-11.3128
の歌を聴いて	-11.313
言動	-11.3131
笑顔にすること	-11.3135
けてくれた	-11.3136
価値があ	-11.3138
してあげましょう	-11.3139
るだけなんだ	-11.314
あの図書館に	-11.314
ってほし	-11.3141
描かれてい	-11.3141
汚れ	-11.3143
知ることができ	-11.3146
く嬉し	-11.3146
亡	-11.3146
の姿を見て	-11.3148
首	-11.315
していい	-11.315
酷	-11.3152
り込み	-11.3152
引かれる	-11.3153
堪えきれない	-11.3153
個	-11.3154
あふれ	-11.3154
やすく	-11.3155
幾	-11.3156
を胸に抱	-11.3158
伝わってくる	-11.3159
止	-11.3161
椅子	-11.3164
割れ	-11.3166
限	-11.3166
ろうとし	-11.3166
我に返	-11.3167
まえに	-11.317
てあげたい	-11.3171
家に戻っ	-11.3171
気を失ってい	-11.3172
ナイフ	-11.3172
沢山	-11.3173
茶	-11.3174
あげたい	-11.3175
体重	-11.3175
周囲	-11.3176
て欲しく	-11.3177
払	-11.3177
を絶やさない	-11.3179
時計を壊してしまっ	-11.318
ようとし	-11.318
穏やか	-11.318
ぬいぐるみ	-11.318
認	-11.3181
投影	-11.3181
ことしかできな	-11.3182
距離	-11.3182
言えば	-11.3182
貴重な	-11.3183
っきりと	-11.3183
具	-11.3184
写	-11.3184
哀しそう	-11.3184
下げ	-11.3184
性	-11.3184
崩壊	-11.3185
よくないと思う	-11.3185
目の当たりにし	-11.3185
押し開け	-11.3185
を回している	-11.3186
裏道を	-11.3186
見つかったの	-11.3186
どうするの	-11.3186
温かく	-11.3187
それだけ言	-11.3188
のか確かめ	-11.3189
ちゃん	-11.3189
わかり	-11.319
詰	-11.3191
最後	-11.3194
記されてい	-11.3194
の声が響	-11.3194
めるように	-11.3195
率	-11.3196
酸化したオイルの臭い	-11.3196
閉じられ	-11.3196
スープを作	-11.3196
の光景	-11.3196
世	-11.3196
震	-11.3197
長	-11.3199
シオナの歌	-11.3199
答	-11.32
が奏で	-11.32
近づいて	-11.32
場合	-11.3201
たいという気持ち	-11.3201
逃	-11.3201
告げ	-11.3202
伝わって	-11.3202
一定	-11.3203
想	-11.3203
ボク自身	-11.3203
閉じる	-11.3203
記	-11.3204
甘い香り	-11.3204
くれたもの	-11.3204
響いた	-11.3204
冷え	-11.3205
年頃	-11.3205
ことだろ	-11.3205
どうしても気にな	-11.3205
ドライバー	-11.3205
抜	-11.3205
んなにも辛	-11.3205
自体	-11.3205
いくつも	-11.3206
を流し続けてい	-11.3206
を当てて	-11.3206
その様子を	-11.3206
埋	-11.3206
耳を傾け	-11.3207
巡	-11.3207
賑やか	-11.3207
悲しげ	-11.3208
隠れてい	-11.3208
慰める	-11.3208
向から	-11.3208
蓄電	-11.3208
確実	-11.3208
陥	-11.3208
なぞり	-11.3208
さなくて	-11.3208
うな男	-11.3209
の決意	-11.321
くないこと	-11.321
提	-11.321
のぞき	-11.3211
懐かしく	-11.3211
開閉することができ	-11.3213
縫	-11.3213
カップ	-11.3213
少女の悲しみ	-11.3214
▁なめらか	-11.3215
マッドさんの店に向かっ	-11.3215
カメラ	-11.3216
廃工場に行	-11.3216
活動	-11.3217
仕事	-11.3217
着	-11.3217
なって思って	-11.3217
ぴったり	-11.3218
二百年も待	-11.3218
ページ	-11.3218
ミ	-11.3219
降り注い	-11.322
響	-11.3221
なかったはず	-11.3221
話を聞	-11.3221
▁そう考える	-11.3221
再生でき	-11.3222
そう言ってもら	-11.3222
げられ	-11.3222
受け入れ	-11.3223
殺	-11.3229
届	-11.3231
密	-11.3241
黒	-11.3241
避	-11.3242
ょ	-11.3243
ぽ	-11.3246
暖	-11.325
ぇ	-11.3252
揺	-11.3253
遠	-11.3253
譲	-11.3253
求	-11.3255
ぜ	-11.3255
失	-11.326
滑	-11.3263
呟	-11.3264
始	-11.3266
仲	-11.3266
辺	-11.3266
包	-11.3267
毎	-11.3269
鞄	-11.327
膨	-11.327
識	-11.3271
預	-11.3271
ダ	-11.3272
三	-11.3273
腹	-11.3273
影	-11.3273
和	-11.3273
零	-11.3273
染	-11.3274
悔	-11.3274
冊	-11.3275
膝	-11.3275
代	-11.3275
替	-11.3276
理	-11.3276
朽	-11.3276
暴	-11.3277
虚	-11.3277
プ	-11.3278
画	-11.3278
女	-11.3278
駆	-11.3278
致	-11.3278
槌	-11.3278
砧	-11.3278
武	-11.3278
料	-11.3278
花	-11.3279
供	-11.3279
工	-11.3279
字	-11.3279
酸	-11.3279
沢	-11.3279
貴	-11.3279
ラ	-11.3279
速	-11.3279
母	-11.3279
傍	-11.3279
叶	-11.3279
掛	-11.3279
晴	-11.3279
医	-11.3279
篩	-11.3279
糧	-11.3279
蝶	-11.3279
視	-11.3279
際	-11.3279
ぅ	-11.3279
業	-11.3279
療	-11.3279
判	-11.3279
八	-11.3279
蓄	-11.3279
幅	-11.328
i	-11.328
靴	-11.328
封	-11.328
希	-11.328
姻	-11.328
備	-11.328
否	-11.328
ぉ	-11.328
儀	-11.328
到	-11.328
蔵	-11.328
=	-11.328
エ	-11.328
喝	-11.328
壇	-11.328
妹	-11.328
絞	-11.328
肢	-11.328
儚	-11.328
改	-11.328
復	-11.328
順	-11.328
束	-11.328
添	-11.328
我	-11.328
N	-11.328
P	-11.328
ネ	-11.328
刀	-11.328
北	-11.328
単	-11.328
囀	-11.328
帯	-11.328
忙	-11.328
悼	-11.328
援	-11.328
旦	-11.328
東	-11.328
櫛	-11.328
涯	-11.328
測	-11.328
滲	-11.328
牲	-11.328
犠	-11.328
盾	-11.328
純	-11.328
縛	-11.328
被	-11.328
西	-11.328
穏	-11.328
灰	-11.328
員	-11.328
推	-11.328
怪	-11.328
g	-11.328
ヒ	-11.328
侶	-11.328
俊	-11.328
修	-11.328
倍	-11.328
偶	-11.328
僕	-11.328
冗	-11.328
区	-11.328
司	-11.328
囁	-11.328
団	-11.328
土	-11.328
域	-11.328
墓	-11.328
威	-11.328
恩	-11.328
惑	-11.328
惚	-11.328
抵	-11.328
据	-11.328
捲	-11.328
排	-11.328
揚	-11.328
攫	-11.328
敏	-11.328
更	-11.328
殖	-11.328
殲	-11.328
源	-11.328
熟	-11.328
獄	-11.328
疎	-11.328
睨	-11.328
磁	-11.328
禁	-11.328
秘	-11.328
穫	-11.328
策	-11.328
粋	-11.328
紡	-11.328
綻	-11.328
缶	-11.328
肯	-11.328
脈	-11.328
華	-11.328
蒼	-11.328
訳	-11.328
除	-11.328
魔	-11.328
等	-11.328
b	-11.328
波	-11.328
海	-11.328
淹	-11.328
粒	-11.328
,	-11.328
B	-11.328
C	-11.328
I	-11.328
f	-11.328
p	-11.328
v	-11.328
w	-11.328
ぺ	-11.328
ガ	-11.328
ゲ	-11.328
ゼ	-11.328
デ	-11.328
ノ	-11.328
仇	-11.328
仙	-11.328
企	-11.328
伏	-11.328
僅	-11.328
兵	-11.328
冒	-11.328
凌	-11.328
凍	-11.328
凶	-11.328
刃	-11.328
刷	-11.328
削	-11.328
劇	-11.328
匹	-11.328
厚	-11.328
叱	-11.328
呆	-11.328
咽	-11.328
哲	-11.328
啜	-11.328
嘆	-11.328
園	-11.328
埒	-11.328
堅	-11.328
奇	-11.328
奨	-11.328
妥	-11.328
妻	-11.328
婦	-11.328
宣	-11.328
射	-11.328
将	-11.328
屈	-11.328
展	-11.328
峙	-11.328
巧	-11.328
布	-11.328
弄	-11.328
彩	-11.328
彫	-11.328
恵	-11.328
慨	-11.328
慮	-11.328
憎	-11.328
懇	-11.328
戒	-11.328
戯	-11.328
才	-11.328
承	-11.328
担	-11.328
拒	-11.328
招	-11.328
挿	-11.328
掠	-11.328
控	-11.328
携	-11.328
斉	-11.328
斐	-11.328
旋	-11.328
星	-11.328
晶	-11.328
朗	-11.328
期	-11.328
札	-11.328
机	-11.328
析	-11.328
柄	-11.328
栄	-11.328
毒	-11.328
毯	-11.328
民	-11.328
汎	-11.328
淡	-11.328
渾	-11.328
滝	-11.328
漁	-11.328
漫	-11.328
濃	-11.328
焼	-11.328
熊	-11.328
独	-11.328
玉	-11.328
疑	-11.328
省	-11.328
礎	-11.328
祈	-11.328
種	-11.328
箔	-11.328
紅	-11.328
納	-11.328
紛	-11.328
紫	-11.328
緊	-11.328
緩	-11.328
耽	-11.328
肋	-11.328
肘	-11.328
脆	-11.328
腫	-11.328
臆	-11.328
臍	-11.328
舗	-11.328
航	-11.328
芸	-11.328
葬	-11.328
蘇	-11.328
虹	-11.328
蝕	-11.328
螺	-11.328
衰	-11.328
裾	-11.328
褒	-11.328
襟	-11.328
訴	-11.328
詮	-11.328
負	-11.328
倣	-11.328
偽	-11.328
創	-11.328
勉	-11.328
営	-11.328
坊	-11.328
曰	-11.328
歪	-11.328
汗	-11.328
淀	-11.328
罰	-11.328
茂	-11.328
賑	-11.328
可	-11.328
迷	-11.328
任	-11.328
励	-11.328
労	-11.328
却	-11.328
参	-11.328
呈	-11.328
嗚	-11.328
屑	-11.328
憤	-11.328
房	-11.328
抽	-11.328
拶	-11.328
挨	-11.328
掌	-11.328
涸	-11.328
爪	-11.328
畳	-11.328
症	-11.328
砦	-11.328
稚	-11.328
筆	-11.328
練	-11.328
習	-11.328
街	-11.328
貸	-11.328
憶	-11.328
第	-11.3281
%	-11.3281
4	-11.3281
ォ	-11.3281
ビ	-11.3281
ペ	-11.3281
・	-11.3281
亀	-11.3281
償	-11.3281
唖	-11.3281
垣	-11.3281
套	-11.3281
寸	-11.3281
尊	-11.3281
徹	-11.3281
挑	-11.3281
掘	-11.3281
標	-11.3281
沿	-11.3281
泳	-11.3281
洩	-11.3281
炎	-11.3281
申	-11.3281
皮	-11.3281
益	-11.3281
眼	-11.3281
矢	-11.3281
禍	-11.3281
科	-11.3281
筋	-11.3281
絨	-11.3281
緻	-11.3281
縮	-11.3281
纏	-11.3281
肉	-11.3281
胞	-11.3281
萎	-11.3281
蔽	-11.3281
複	-11.3281
欠	-11.3281
準	-11.3281
九	-11.3281
史	-11.3281
悶	-11.3281
校	-11.3281
舎	-11.3281
規	-11.3281
職	-11.3282
6	-11.3282
以	-11.3349
曲	-12.4375
鹿	-12.6766
馬	-12.6767
随	-12.6768
鎖	-12.6769
郎	-12.677
週	-12.6771
透	-12.6772
迫	-12.6773
迂	-12.6774
較	-12.6775
軋	-12.6776
跡	-12.6777
託	-12.6778
観	-12.6779
覧	-12.678
草	-12.6781
若	-12.6782
脇	-12.6783
胴	-12.6784
肝	-12.6785
絹	-12.6786
紐	-12.6787
籍	-12.6788
算	-12.6789
皿	-12.679
皺	-12.6791
環	-12.6792
珍	-12.6793
狙	-12.6794
煙	-12.6795
湯	-12.6796
洗	-12.6797
歴	-12.6798
概	-12.6799
極	-12.68
棄	-12.6801
枯	-12.6802
条	-12.6803
暇	-12.6804
普	-12.6805
是	-12.6806
摂	-12.6807
損	-12.6808
掴	-12.6809
掲	-12.681
採	-12.6811
挟	-12.6812
把	-12.6813
戸	-12.6814
懸	-12.6815
慢	-12.6816
惜	-12.6817
悩	-12.6818
恋	-12.6819
快	-12.682
徐	-12.6821
弔	-12.6822
庭	-12.6823
局	-12.6824
察	-12.6825
室	-12.6826
客	-12.6827
宝	-12.6828
孕	-12.6829
姉	-12.683
妨	-12.6831
妙	-12.6832
奮	-12.6833
売	-12.6834
士	-12.6835
境	-12.6836
噤	-12.6837
嗟	-12.6838
喪	-12.6839
咄	-12.684
及	-12.6841
厭	-12.6842
劣	-12.6843
刺	-12.6844
凝	-12.6845
傘	-12.6846
俯	-12.6847
余	-12.6848
件	-12.6849
令	-12.685
仄	-12.6851
ユ	-12.6852
ザ	-12.6853
ぷ	-12.6854
L	-12.6855
馴	-12.6856
雪	-12.6857
隅	-12.6858
陰	-12.6859
豊	-12.686
覗	-12.6861
袖	-12.6862
臭	-12.6863
瞥	-12.6864
痕	-12.6865
病	-12.6866
産	-12.6867
澄	-12.6868
涼	-12.6869
殆	-12.687
模	-12.6871
楕	-12.6872
慰	-12.6873
慎	-12.6874
愁	-12.6875
従	-12.6876
延	-12.6877
廊	-12.6878
庇	-12.6879
幼	-12.688
寿	-12.6881
害	-12.6882
委	-12.6883
奢	-12.6884
央	-12.6885
基	-12.6886
厳	-12.6887
匂	-12.6888
制	-12.6889
偉	-12.689
飾	-12.6891
飯	-12.6892
類	-12.6893
領	-12.6894
野	-12.6895
跳	-12.6896
芻	-12.6897
脚	-12.6898
簡	-12.6899
範	-12.69
箇	-12.6901
眺	-12.6902
溢	-12.6903
棺	-12.6904
桶	-12.6905
杯	-12.6906
既	-12.6907
救	-12.6908
愚	-12.6909
恥	-12.691
己	-12.6911
寧	-12.6912
囚	-12.6913
嘩	-12.6914
喧	-12.6915
些	-12.6916
丁	-12.6917
r	-12.6918
2	-12.6919
麗	-12.692
険	-12.6921
闇	-12.6922
諦	-12.6923
荷	-12.6924
美	-12.6925
罪	-12.6926
繋	-12.6927
綺	-12.6928
積	-12.6929
督	-12.693
監	-12.6931
潤	-12.6932
済	-12.6933
殴	-12.6934
検	-12.6935
捧	-12.6936
拾	-12.6937
技	-12.6938
律	-12.6939
唯	-12.694
井	-12.6941
乾	-12.6942
久	-12.6943
ケ	-12.6944
黙	-12.6945
隙	-12.6946
躊	-12.6947
躇	-12.6948
買	-12.6949
貨	-12.695
衝	-12.6951
膚	-12.6952
移	-12.6953
祭	-12.6954
眉	-12.6955
略	-12.6956
灯	-12.6957
択	-12.6958
抑	-12.6959
慣	-12.696
尽	-12.6961
孤	-12.6962
固	-12.6963
噛	-12.6964
叫	-12.6965
勢	-12.6966
像	-12.6967
価	-12.6968
ャ	-12.6969
ギ	-12.697
頑	-12.6971
議	-12.6972
訊	-12.6973
興	-12.6974
稼	-12.6975
溜	-12.6976
暮	-12.6977
拝	-12.6978
態	-12.6979
完	-12.698
堵	-12.6981
与	-12.6982
雑	-12.6983
邪	-12.6984
迎	-12.6985
貼	-12.6986
繰	-12.6987
索	-12.6988
管	-12.6989
漏	-12.699
況	-12.6991
比	-12.6992
搭	-12.6993
捜	-12.6994
堂	-12.6995
原	-12.6996
協	-12.6997
停	-12.6998
ヨ	-12.6999
ュ	-12.7
ホ	-12.7001
ァ	-12.7002
ゅ	-12.7003
香	-12.7004
障	-12.7005
鍵	-12.7006
距	-12.7007
説	-12.7008
聴	-12.7009
絡	-12.701
素	-12.7011
懐	-12.7012
堪	-12.7013
唄	-12.7014
保	-12.7015
駄	-12.7016
送	-12.7017
貰	-12.7018
訪	-12.7019
瞳	-12.702
点	-12.7021
注	-12.7022
柔	-12.7023
支	-12.7024
投	-12.7025
建	-12.7026
寝	-12.7027
哀	-12.7028
係	-12.7029
互	-12.703
7	-12.7031
頷	-12.7032
録	-12.7033
踏	-12.7034
癒	-12.7035
永	-12.7036
施	-12.7037
忘	-12.7038
奏	-12.7039
剥	-12.704
借	-12.7041
低	-12.7042
乗	-12.7043
鳴	-12.7044
苦	-12.7045
為	-12.7046
危	-12.7047
越	-12.7048
覆	-12.7049
濡	-12.705
椅	-12.7051
景	-12.7052
族	-12.7053
故	-12.7054
常	-12.7055
信	-12.7056
飲	-12.7057
載	-12.7058
許	-12.7059
組	-12.706
礼	-12.7061
属	-12.7062
題	-12.7063
関	-12.7064
捨	-12.7065
締	-12.7066
充	-12.7067
床	-12.7068
共	-12.7069
由	-12.707
撫	-12.7071
寂	-12.7072
受	-12.7073
並	-12.7074
飛	-12.7075
風	-12.7076
袋	-12.7077
振	-12.7078
初	-12.7079
グ	-12.708
隠	-12.7081
降	-12.7082
法	-12.7083
好	-12.7084
浮	-12.7085
幸	-12.7086
差	-12.7087
呼	-12.7088
番	-12.7089
ハ	-12.709
押	-12.7091
通	-12.7092
問	-12.7093
嬉	-12.7094
在	-12.7095
伝	-12.7096
閉	-12.7097
待	-12.7098
昨	-12.7099
能	-12.71
伸	-12.7101
過	-12.7102
緒	-12.7103
存	-12.7104
描	-12.7105
落	-12.7106
教	-12.7107
探	-12.7108
決	-12.7109
械	-12.711
界	-12.7111
必	-12.7112
優	-12.7113
泣	-12.7114
誰	-12.7115
考	-12.7116
づ	-12.7117
覚	-12.7118
ゴ	-12.7119
葉	-12.712
─	-12.7121
温	-12.7122
持	-12.7123
館	-12.7124
情	-12.7125
ゃ	-12.7126
―	-12.7127
ィ	-12.7128
